#version: 0.2
t h
th e
i n
a n
e r
r e
o n
o u
a t
e n
i s
e d
an d
t o
o f
a s
o r
e s
in g
i t
a r
a l
h e
s e
l e
b e
s t
c h
o m
w h
n o
a d
l y
c e
th at
w i
i on
v e
i m
l l
en t
i d
l d
u t
g h
v er
o w
f or
m e
w as
a y
i r
l i
y ou
wi th
h is
h a
c t
r o
al l
no t
r i
h er
u n
t er
s u
the r
d e
gh t
s a
s o
c on
wh i
h ad
k e
a b
ou ld
w e
m o
l o
a re
u r
a g
a in
n e
s h
i c
p e
on e
f e
whi ch
b y
es s
o d
p o
h im
om e
er e
a m
ou t
a c
u s
b ut
ha ve
m y
ou r
m an
n d
f r
T he
i f
q u
p er
e t
g o
e x
u l
i l
at ion
u p
th is
re s
d o
es t
t r
fr om
th ing
no w
. ”
the y
an t
ar d
in d
s he
a p
f o
sa id
c om
wh o
t e
se l
ou s
ver y
u st
ar t
at e
en d
p ro
the m
p l
g e
the re
w or
o ther
w ere
is t
it y
i ll
s ome
d er
the ir
o k
on g
c a
c o
ow n
an y
w ould
p r
, ”
as t
sel f
f a
w ay
u re
i ght
e m
en ce
ou nd
a k
wi ll
o p
i ve
v en
ou gh
c i
wh at
t im
H e
be en
c an
is h
r a
re at
fo re
wh en
mo re
k now
m ent
ab le
i g
er s
T h
b o
it t
l a
- -
W h
I t
th an
re d
her e
u m
in e
c k
a f
it s
B ut
po s
an ce
a ke
ou n
i e
M r
id e
as s
you r
li ke
? ”
c ould
A nd
ou ght
b le
g r
e l
v ed
p re
d is
p res
u se
or t
in to
s ay
h as
w o
h o
ct ion
p t
i es
p art
t ain
al ly
e p
it e
on ly
b er
ad e
p le
b l
the n
an s
r y
tim e
o l
g reat
ur n
se e
lo ok
a ch
f ul
t y
f er
go od
v es
d ay
i re
u e
u ch
in k
o ver
ac k
j e
re e
o b
o se
m en
itt le
sh ould
d id
e ar
p p
ar y
s p
up on
m ay
un der
i ce
su ch
mo st
h and
b r
ag ain
ab out
u d
l ittle
v ing
m ust
s i
e ver
wh ere
ag e
h ow
c l
st r
a ct
s pe
! ”
l ong
c ome
e very
g l
f ir
n ess
m uch
in t
t urn
ion s
at ed
I n
s to
for m
the se
s er
is e
re ad
c oun
je ct
m on
we ll
d es
m ade
af ter
a ce
l ess
t wo
of f
or d
be ing
be fore
an g
W e
o ld
w ard
o t
ne ver
n at
e ven
th ose
th ink
d own
th r
ri ght
le t
c er
ca use
fir st
be t
c r
f l
th ought
ig n
h i
li ght
k ed
ar m
i ous
sa me
thing s
ca me
him self
with out
con s
Y ou
a u
e y
ne w
m ight
se em
s on
m ar
sh all
c ess
w ent
a th
or n
th ough
j ust
re n
G od
a ve
t en
l ed
in ter
an c
k ing
be g
s c
i ly
p ass
ri ed
d u
wor d
i v
m ake
it ion
t ed
re as
c all
T here
p s
st and
ll ow
he ad
_ _
a me
li fe
a ir
S he
g et
to o
d if
wor k
at t
b od
c our
c as
is s
ow er
e f
m ind
way s
s m
su b
ation s
t s
d ist
ou se
no thing
at ter
fe ct
p ut
ap pe
i ld
thr ough
b ack
an ge
man y
con t
d on
l es
. .
en er
c lo
er ed
e v
op le
p ar
T his
an other
f ri
Wh at
li c
s en
pres ent
a way
f ound
to r
ha pp
m in
F or
v o
S t
m ed
pl ace
st ill
n ight
y et
te ll
be cause
n g
p ort
pe ople
ple as
ing s
g i
in ce
= =
m er
tr y
l ast
w om
pres s
you ng
ak ing
i ed
h ouse
go t
ce pt
ic k
t ake
l t
re g
I f
f t
al ways
ar s
bod y
li e
N o
C h
n er
k ind
fri end
en ed
res s
i ther
for t
su r
ey es
c ar
cer tain
o c
are d
v i
ro om
w ant
pe ct
The y
i p
re t
g u
r u
p h
whi le
se t
A r
at er
reas on
ent ly
w r
i th
le ct
wor ld
fa ce
ac c
y ear
s ide
d en
b re
ic ul
lo ve
b ro
c ed
l and
ish ed
p ri
he art
com p
c le
tim es
turn ed
E R
n or
ic al
s s
j o
com m
ch ild
g ive
re p
al e
u ll
Th at
f ar
ad d
g ener
a w
at es
re m
i an
fe el
la w
t ing
a v
n ing
sa w
on d
or der
al so
in ess
f in
u al
ar k
sel ves
a it
po int
do or
om ent
si ble
b ed
m oment
th ree
f ind
re l
t al
un d
p ower
so l
per son
some thing
in st
u b
te m
dif fer
look ed
i z
A s
co l
on ce
con d
me m
Mr s
do es
h or
c ap
ver s
en s
e as
s ou
c es
to ok
bo th
s ha
nat ure
cons id
un t
ch o
seem ed
who le
ward s
hi gh
k s
Wh en
qu i
v is
again st
fa ther
v al
can not
d one
b it
s at
i er
l ow
po se
c ur
i al
us ed
m a
T H
p a
bet ter
g ed
we en
ch ar
fo llow
le ft
e ach
Th en
ans w
go ing
wh om
c he
ne ar
T o
su p
f f
se en
on s
o s
u res
p ur
qu ite
n ame
re st
l s
bet ween
S o
call ed
read y
h al
coun t
at ch
ha ving
, ’
wom an
w ind
my self
th y
so on
he ard
w on
he l
P ro
m atter
g ent
re w
ment s
r ow
t ak
ne cess
b u
A n
i le
r ound
sto od
su re
s il
ho ld
in de
v ent
mo ther
ra w
ge ther
to gether
qu est
li ed
h u
ce i
be lie
de ar
me an
am ong
A t
H ow
there fore
per i
as ter
l ar
under stand
it ed
s po
nat ur
d ou
p ed
word s
hand s
I I
l ad
ut e
tr u
h ard
We ll
pos sible
he ther
as ked
l ay
d r
c or
them selves
in s
ser v
C H
y s
as h
E n
c are
at ing
ob ject
. ’
H is
hal f
to ld
M ar
is ed
s im
en ough
an k
cour se
Y es
str u
ra ther
w al
fe w
pl ain
th ou
beg an
ha ps
s y
he ar
year s
c u
end ed
f am
c ri
t ri
po or
fe lt
h ome
h our
e ither
co ver
O h
f re
N ow
sm all
__ __
O n
any thing
it self
o ve
a ther
B e
F r
M y
is ter
st ate
say s
ke ep
s ince
cont in
coun try
s ent
ex ist
a il
al most
con f
sp ir
pr in
gent le
spe ak
ent s
a ut
pos ed
it ies
fa ct
sh ip
qu e
ex t
ul t
tr ue
f all
s k
ad v
k new
j ud
cas e
th us
s ing
ke t
le g
consid er
it u
sou l
al s
ir d
other s
x t
look ing
how ever
inter est
J o
ction s
h on
T ER
en g
anc es
w ish
s ir
b ar
m is
ut en
f ull
i a
re al
c ent
c y
et y
il ity
man ner
c ried
i ent
c reat
rem ain
ful ly
one y
tak en
M iss
n um
b us
ce ed
sh ow
to w
her self
f our
of ten
know n
A P
g ir
== ==
pro du
gi ven
ate ly
ut ion
ant s
op en
pro per
sub ject
b es
u gh
ber g
hu man
in ed
m orn
dou b
or s
i ble
l ing
D e
ar n
so ci
y e
d ire
fa ir
s ort
ab ly
ap p
ro ss
se ver
al one
ne ed
as k
sh o
ch ed
vo ice
t ill
g ra
or y
P r
e qu
c al
per haps
con tr
id ent
k en
b est
d raw
morn ing
ac es
uten berg
w hether
know led
pl ay
g ave
id es
w ater
su m
s es
who se
prin ci
pre t
be aut
ab ove
ag es
c ir
d ark
ide a
cei ved
a ven
s le
CH AP
re f
day s
ou d
ex press
inde ed
part icul
m oney
A ll
CHAP TER
s un
en e
ct ed
p ain
appe ar
, —
br ought
ie ld
sen se
acc ord
v ol
st re
differ ent
st e
belie ve
m or
in c
) ,
to wards
w ise
pos ition
ho pe
En gl
Wh y
rep lied
go ver
ow s
pp ed
la ugh
ang er
le ast
s ign
an n
d iv
per fect
r un
ef fect
res pect
com mon
se c
ag n
ad m
lar ge
d i
TH E
D o
de ath
em p
pr om
str ong
natur al
s we
g one
er y
me ans
ex c
Pro ject
li ve
gener al
particul ar
ch es
jo y
id ed
G utenberg
tru th
wh ite
ir t
i gh
m s
S e
un e
p en
contin u
g n
with in
ub lic
com ing
pr of
f ire
is on
h ind
mem ber
knowled ge
th or
m ere
ex pect
gr ound
g g
pass ed
a z
wo od
m aster
doub t
el se
reg ard
quest ion
su c
f i
A N
p i
f ree
mo t
let ter
w ar
won der
ur ing
re ally
. "
med i
an im
A l
ne xt
at ive
I N
U n
se cond
al ready
st ep
al ong
ut ter
und red
re turn
te l
O N
b lo
ear th
w all
v ie
bo ok
d om
wh y
v il
h undred
fe ar
O f
bl ack
s ess
ter n
r is
s ound
ar is
hel p
accord ing
v ar
answ er
ob ser
happ y
sh ort
cle ar
the e
to ry
dif f
w ait
if ic
Ar t
de ad
d est
pos sess
some times
bo y
every thing
em ent
vie w
b and
d den
se qu
u c
on t
le ave
im p
ie f
im ag
necess ary
gover n
gir l
ar ch
char act
st ri
spe ci
r ist
oc cas
beg in
m al
be y
he ld
con st
G o
al ity
I s
g re
on es
W ith
u sh
ap pro
fe et
re turned
l it
ch ange
com es
ck ed
su dden
ci ous
appe ared
m aking
tr ans
ro ad
ur ther
s ed
w atch
ow ed
si x
ain t
op in
itu de
i red
es e
child ren
ous and
an e
fe llow
ar ri
f ive
ex cept
con cer
tow n
Ch rist
m id
ex am
ure d
th ousand
f ast
tem pt
re ach
wi fe
il ed
s or
sever al
re member
st er
bro ther
ri but
be come
O ne
friend s
ak es
u g
d ro
ul ar
be ar
li g
ac ed
even ing
in ation
L et
re am
ent er
bus iness
ey e
r id
mo ve
cir c
if ul
ic es
c ut
O b
E N
ce ive
com ple
p ublic
se a
t able
m iss
diff icul
de c
p end
itt ed
b ad
ac qu
to m
num ber
great er
l ist
in ct
spir it
am p
s ight
pleas ure
fam ily
hi lo
un g
b ur
m ist
arm s
g y
A R
f ine
f lo
ch ief
la im
1 8
be hind
ri es
stre et
n am
a x
f ield
c us
ac count
r up
sat is
fo ot
s pr
seem s
u su
ie ur
a id
pro v
wom en
ow ing
de ep
unt il
t on
c orn
ha bit
tr ou
L ord
br ing
lad y
hilo so
y ing
h ur
R o
me et
c up
A d
ck s
pro b
en ces
clo se
for th
lo st
fe ll
r an
p ay
H er
s ister
as e
pe t
ne ither
C on
l ab
cover ed
f fer
ur ch
d ri
h us
ou th
hor se
su ff
li es
ev il
ill ed
r it
t ou
co p
me t
m ine
re mar
un i
itt ing
ex peri
tal k
su pp
N ot
i us
, "
be long
ent ion
u ally
answ ered
co ld
long er
de m
ke pt
end ing
E m
p ast
pl es
B o
le arn
occas ion
id ence
B y
T om
charact er
m ain
li ber
at s
wi ld
say ing
d ress
he aven
str ange
! ’
sle ep
ha ir
m il
im port
de ter
fl u
our s
tel lect
form er
feel ing
off ic
v irt
go ld
l im
im medi
su ffer
? ’
ha m
h um
0 0
gentle man
O F
con sequ
T I
M o
m ale
le y
ce ll
G r
are n
se m
gh ter
it ch
sup pose
z e
ri age
ri ous
s had
t re
i ch
A h
ord in
st art
t aking
x ed
lo y
ag ed
C om
it ions
went y
a h
b ly
m oun
Art agn
Artagn an
in tellect
ar r
E S
D or
S ome
p ie
ren ch
circ um
fa v
au thor
c ast
g ain
de al
wind ow
in cl
There fore
H ere
e le
p al
ow ers
g er
form ed
l u
th os
d uring
ch ang
hus band
t end
qui et
stand ing
r on
p at
mo ved
a ction
re ceived
in es
r ap
qu ick
b ird
ide as
n ed
al th
y es
O R
p or
t wenty
W here
sur pr
f ig
li ar
bre ak
h ar
govern ment
ant ly
beaut iful
qu ar
ad ame
opin ion
d ut
comm and
an ci
A f
Th ese
work s
iv id
pret ty
A mer
m us
ha th
Amer ic
c re
be came
continu ed
g od
tain ed
d in
blo od
N at
p hiloso
co gn
Ob j
un to
your self
po st
M on
t le
law s
F rench
wor th
pro ceed
R e
le a
P e
un ity
spe ct
cho ol
p as
ard s
d le
ro y
d ream
e k
for d
per s
c tor
g ar
ad y
st ud
ing ly
bl ed
n a
le ad
St ates
pr ison
qui red
b ri
n i
in al
iz ed
add ed
c ry
Af ter
e th
W ill
com fort
eas y
ag ree
e w
suff ic
circum st
re su
m akes
speci es
us es
comp any
au ghter
sc ar
g es
pur pose
de light
d anger
ate ver
Engl ish
m ur
suc cess
want ed
f ac
P o
comp an
gl ad
g ate
or ig
==== ====
N or
d aughter
s mo
im e
T r
ent ire
des ire
ur y
ar ound
ly ing
b ound
h n
see ing
th s
of fer
fir m
contr ary
s chool
adv ant
re present
ll ed
of t
ious ly
emp loy
ne y
pr ay
for ce
do ing
soci ety
r or
st ra
g ard
ut es
.. .
anc y
port ion
part s
gr and
just ice
fe ction
ri ch
Wh o
bey ond
pr act
so ld
c ross
X X
st one
L e
im ent
S ir
exist ence
C o
certain ly
s al
ag o
deter min
we l
do g
b ers
p on
tr a
P aris
in v
thought s
re nd
mot ion
i ans
sub st
re pe
think ing
re sol
follow ed
st ay
car ry
spo ke
n one
li ving
l ine
ch air
sudden ly
swe et
pre h
ve l
im possible
fa ith
M ons
tr ust
ent ered
s it
st air
O r
st ren
am ent
op ened
us ion
experi ence
ac y
cons cious
____ ____
K ing
pl an
Mons ieur
f urther
to p
know s
cond ition
L I
Jo hn
fort une
ou red
ter ri
ment ion
ab l
oun t
c ity
s l
ind ivid
stren g
Fr om
f if
ne igh
p ath
is m
happ iness
t m
L E
i ence
l at
Th us
f al
car ried
al though
cept ion
r ing
g en
bo t
w arm
v an
ro pe
ordin ary
wr ong
sec ret
usu al
inc reas
pass ion
u es
b en
sm ile
ar ing
ci ence
neigh b
M e
er t
se x
individ ual
m outh
s low
ist s
g ro
dire ct
immedi ately
in flu
de v
ro se
se par
wr it
im press
s in
s la
wal ked
sim ple
de cl
hard ly
M ary
h ast
we ak
if ied
under stood
de f
b right
la id
l atter
fre sh
cour t
wh atever
hour s
St ate
l ord
mere ly
ang u
c ul
tain s
.. ..
li ver
con ne
appro ach
ter s
did n
ra ce
comple te
con cl
f ut
av y
lo g
rel ation
pe ace
il ing
es pe
lo ved
Th ou
l ate
en joy
con vers
S p
tre es
near ly
begin ning
spe aking
en ing
b ility
li ce
qu ire
expect ed
D on
l er
E x
g ing
vi ol
for ward
at ic
le ction
ex plain
E very
p her
object s
end s
R ep
C ome
e lect
cr ow
po lit
dist ance
so le
anc ed
c red
pl aced
fr aid
obser ved
a ud
o v
gra ce
gl ass
ab sol
fin ite
me as
h at
t ried
Engl and
itt en
ish ment
C ha
a fraid
ous ly
P er
gu ard
att ention
be ll
princi ple
o per
t ail
en cy
or g
mal es
e ight
ex p
get ting
h ill
M adame
i ke
consid ered
I nd
C ap
ch ance
ar ily
II I
i i
sil ence
ho od
f le
the s
li ved
ag re
R E
l eng
ap point
sa fe
remain ed
as ed
des cri
eas ily
d ie
O U
g ree
I S
des p
n ation
n est
happ ened
ob li
person s
pro ve
wal k
pi ct
h op
af fair
gi ving
th ird
est abl
te en
ex act
oc cup
an x
hon our
fr ont
understand ing
pleas ant
pri v
streng th
Q u
n y
difficul t
b s
t reat
min utes
g lo
ive ly
a is
tell ig
absol ute
sto pped
V al
c ket
clo ck
equ al
espe ci
f ing
bl ess
p un
me ant
differ ence
creat ure
w it
po t
bl ing
tr ave
ter ms
turn ing
dr ink
w a
con du
ren t
att le
m ad
fer ence
advant age
v ill
d rew
not e
H o
e ad
pleas e
dist inct
ch urch
ain ed
l ly
beaut y
fut ure
h y
pur su
in tellig
c ord
produ ce
appear ance
. )
f ied
fre qu
d read
ac ross
pos si
g ri
E u
L u
b ank
li ps
cl ass
scar ce
w ine
perfect ly
dem and
t rem
fo ol
express ion
u ght
Go od
p u
e ch
trou ble
er ing
dut y
inst ead
H im
p he
p ure
l ower
serv ice
t ro
b ig
in ing
ear ly
pl aces
en se
th ir
li z
sing le
lab our
Pr ince
f right
, --
b urn
it ation
wh is
add ress
t est
var i
Ch ar
f at
it ution
de pend
especi ally
ver se
fort un
virt ue
e at
pa per
a unt
m ort
tern al
tou ch
follow ing
after wards
oc cur
jud ge
leng th
gard en
bro ken
din ner
stru ck
rup t
part y
gr ow
wr itten
gener ally
re lig
n on
pa id
corn er
sto ry
sa ge
circumst ances
S E
sim p
ic s
d im
re cogn
b orn
supp ort
) .
ing u
te ars
t ree
de gree
remar k
sa il
sy m
P ier
M or
hor ses
aren t
our selves
s itting
l en
un less
influ ence
ac cept
g ment
ho st
bo at
f it
vis it
qu ir
entire ly
. ,
in stru
su per
Eu rope
F ather
i ers
j est
er c
div ine
spr ing
ir on
author ity
k ne
tor s
j our
s light
it al
pres ence
at tempt
st em
J e
ex cell
mon s
a vo
E d
t one
mo der
laim ed
sup posed
dist ingu
s oft
crow d
ad ed
h all
gre en
ra ised
pie ce
i am
fi xed
cop y
p ter
his tory
bo ard
Pier re
form s
p ond
mor row
prob ably
p ale
con ce
step s
m ir
cu liar
i or
Christ ian
pro portion
s ad
cas es
ex e
m ater
pe culiar
B en
miss ion
ll ing
w ished
b on
pre v
fig ure
r ation
reach ed
se as
ab ility
L o
i ves
all ow
de vil
b ra
as su
tr act
gra ve
u ck
m ing
chang ed
m ag
-- --
he avy
A L
tr ad
stair s
fal se
lo t
is ing
te ach
bird s
for got
cont ent
ic ally
A thos
great est
d y
R om
sa ke
N ew
ish ing
pres er
An ne
convers ation
ann y
ar row
k es
f un
w is
t ax
w ound
ign or
pro te
f illed
al t
de part
po et
l in
l angu
it er
sh i
ph y
bod ies
pre vent
des er
il t
re ceive
s itu
min ute
J ud
ca uses
fav our
no on
like ly
tal king
bu ild
P or
bl ue
se ven
stra ight
ous es
ca pe
liber ty
Cha pter
ag er
no ble
u ous
peri od
sh op
adm ir
natur ally
ke y
val ue
c it
princi ples
proper ty
g all
su sp
qu ant
pleas ed
sil ver
D an
high er
anim als
tend er
clo sed
god s
var ious
com pl
other wise
dist ribut
sil ent
anci ent
s ion
be low
cl oud
f ight
bl es
lect ed
obli ged
g az
h un
de ed
bes ides
f urn
li ef
suffic ient
k iss
re me
ne t
bo x
pri ce
mor al
m i
inst ant
il le
s cr
bo ys
gentle men
C ol
c and
h ang
Rep ly
f ancy
m it
u el
wi de
au ght
car riage
you th
co st
af fection
su peri
mean ing
r ul
N ever
conf ess
Cap tain
: —
id ing
for get
pr ince
form ation
wor thy
f ash
er able
po p
fe e
sy stem
b id
ch arm
feel ings
char ge
b ow
f ro
il s
wor se
Un ited
necess ity
sh ut
op pos
des c
Fr ance
b as
concer ning
m n
uni vers
l an
ar gu
tem per
h ouses
it able
co t
r ate
mar ried
b all
C ar
g rew
do ctor
on y
pre p
book s
r ain
sp ace
ho t
as te
we ek
ist ed
ri c
G e
s qu
g ress
pt ion
pass ing
ret ched
ron ic
priv ate
n al
gr ad
co at
L on
al together
b al
Y et
mo on
Th y
show ed
s n
ber t
sh ed
gr y
repe ated
e ks
cour age
sh ar
difficul ty
ch er
bre ath
wait ing
appe ars
M ic
st ro
ri ver
S uch
p owers
Lon don
s ick
ed uc
L y
out side
ex erc
the less
to ward
fam i
J ust
li ves
draw ing
land s
mid dle
superi or
ic ed
Y our
tr ade
cal m
go es
H en
s pl
comm un
b or
dire ction
not ice
al ter
know ing
pp ing
sh out
en de
fash ion
sto ck
mater ial
sa ve
gr at
import ant
orig in
C an
in fer
spo t
h ung
ve lo
b read
s w
. —
draw n
cu rious
sk y
L aw
in habit
gg est
le an
op port
al ed
sim il
ange ls
inst ance
hon est
flo or
su ggest
a po
look s
vis ible
d are
B ar
é t
re sem
learn ed
terri ble
set t
us ing
af fect
slow ly
whis per
a ctions
off ice
cap tain
produ ced
exc laimed
1 7
c laim
re ck
is ion
is tr
f arm
be at
we alth
creat ures
he el
all owed
fe male
mon ths
mil es
en ess
em pt
k ill
d ied
if y
g a
l ater
ud ed
iz e
arri ved
determin ed
cit iz
mem ory
p ull
c ab
p ound
suc ceed
r ise
nam es
A m
s end
con v
b an
t wi
v ain
sor row
l est
press ed
F o
ca ught
gi ves
po cket
ap art
mar ry
la me
d ing
ru le
je ction
Ad am
B ro
elect ronic
c ro
creat ed
fo ld
O ur
u x
spir its
S T
fl es
u ff
S on
and er
n ers
move ment
M an
scarce ly
fore ign
col our
p ing
pro ved
ene ath
D r
d ue
it ary
a ver
ush ed
b a
pr ide
L ady
order s
ne ck
W hether
id ently
E D
ap t
spe ech
utter ed
rap id
th ro
m ass
t te
ha b
ch am
sa v
com b
ast on
try ing
v ic
ab les
pro of
B r
prof ess
L ou
R ome
agree able
p it
qu al
spo ken
1 0
quant ity
u de
br an
belie ved
anim al
S am
sho re
exam ple
oppos ite
m ill
om en
mar riage
reg ular
lad ies
surpr ise
is es
. --
could n
pre ad
head s
quar ter
k no
shar p
condu ct
F urther
I V
— ”
th ick
man if
che er
ext reme
p ity
ear s
some what
m ult
serv ant
F ound
at ure
wr ite
simp ly
or ge
cap able
i ently
ar my
tak es
exact ly
ant ic
ten ance
G ree
lo se
Se e
A re
s now
v a
quick ly
clo thes
H ence
bes ide
L a
c ou
pr a
ph ys
c ard
ear nest
con ven
anc ing
i o
dark ness
el le
hold ing
in finite
street s
A T
b eneath
ag ue
ne g
qu is
ex tra
dis cover
ene my
prom ise
would n
satis fied
b ing
at or
o th
fa ction
see k
tal ked
ant ed
bl ind
lo ss
è s
consider able
li f
com preh
br id
in a
fall en
fore st
dest roy
mus ic
u it
AN D
imag ination
R O
no body
run ning
er al
sto p
lea ving
ot s
sp ite
ll i
il es
ev ident
t ong
es cape
subst ance
sen sible
mention ed
Found ation
s pread
con ception
sor ry
happ en
ac le
e ager
sum mer
bro ad
F anny
in no
re ven
ain s
g un
in f
r ough
gl ance
hand some
af f
m ut
no ise
ende av
h id
eas e
like wise
wal king
IN G
D id
d am
dis covered
M a
jud gment
b attle
1 5
i b
mo de
min ister
letter s
Americ a
P an
rep ly
b are
ul ation
lea ves
hon or
H ave
than k
st ir
laugh ed
t aste
pr oud
f aces
sto r
leg s
cr im
in j
fo od
app arent
f ish
er ous
se arch
af ford
lo d
imag ine
he alth
com par
ob serv
th in
bur st
the d
tain ing
bro ke
k illed
de liver
int ro
ser ve
! —
resu lt
th rew
se ll
ay s
simil ar
i res
stre am
ben ef
G ener
He aven
======== ========
mon str
Bo ok
shad ow
will ing
gir ls
as soci
att ach
possess ion
bot tom
B rit
V I
keep ing
L A
c ing
in n
y ard
in quir
do th
me th
ke ts
lo ck
commun ic
ange l
fl owers
How ever
ass ist
ma id
intro du
li p
frequ ently
The ir
is to
de b
P h
No thing
m ach
ev idently
1 6
t ic
A ug
Por thos
ser ious
re quire
acc us
The e
pro cess
R us
os ity
Je an
M ay
am es
mind s
matter s
equ ally
stud y
cle an
d ry
e per
affair s
s ides
et ty
read ing
compan ion
writ ing
att ack
offic er
employ ed
ar ies
li ked
ill a
cl er
sc ene
fa il
langu age
cl im
fre ed
situ ation
fer red
C a
break fast
per su
wall s
jour ney
as c
wi cked
dist ur
Ch urch
meas ure
H ar
res ist
jo ined
Mar ius
mur der
wis dom
d ed
v ast
fe t
dec ided
E ven
coun ter
conf idence
philoso pher
G er
new s
quest ions
C E
Aug ust
agre ement
n ations
bre ast
ct s
high est
s word
ot ed
ph en
w in
ex cl
gr ass
start ed
jest y
sen ses
c atch
m agn
si gh
g if
l oud
ro ck
ard on
consequ ently
consequ ence
om y
vis ion
bit ter
S aint
_ I
h es
le ep
put ting
re port
cap ital
particular ly
opport unity
f ond
sh own
after noon
de p
acc ident
re cei
res pond
moder n
ak ed
wood s
Dor o
sett led
sha me
de velo
we ar
M il
n arrow
thir ty
h arm
z en
be ast
que en
ent ial
ut ions
gl ory
er r
co ach
P l
cr uel
fif ty
ro g
R ue
o bey
acqu aint
C ount
u ce
sa cri
con su
G reat
satis faction
A b
m es
r are
ou l
dis cus
bo ld
A S
pas sage
direct ly
g in
l st
J ane
we ight
P res
im ents
sh ot
H a
ve y
intellect ual
w inter
str anger
obser ve
cus tom
c ult
des ign
M aster
pro gress
necess arily
philoso phy
mem bers
surpr ised
G u
z z
It al
serv ants
sho ok
seas on
absolute ly
cept ions
rel ations
p es
se at
Ge orge
Americ an
S te
s ong
ind if
leg is
Gener al
d ign
att end
B es
k er
ex ceed
there d
present ed
sole mn
t ur
t all
point s
ed ge
tru ly
every body
th ur
te a
vill age
d ig
forgot ten
manif est
wel ve
ess ence
And rew
pre ced
ab s
F ir
H etty
ch ap
Em ma
. ]
I T
f ed
s om
Ar thur
educ ation
ad i
ci vil
hur t
Per haps
ac ity
ca used
con tem
TI ON
for ced
are s
um p
coun tenance
pri est
per or
con vi
whi lst
d ust
susp ic
b ir
s cience
inst inct
impress ion
á sha
excell ent
offer ed
pict ure
st y
cons ent
t w
play ed
laugh ing
g est
s wi
de lic
dress ed
V ery
v ation
y ield
appoint ed
he ight
ro b
h ide
e ld
am is
pre c
thr own
order ed
st ar
f ill
it ive
un known
per ceived
relig ion
p air
it es
qu ality
w w
re ver
re quired
al arm
gr ou
sha re
polit ical
S un
man kind
wonder ful
person al
so ever
dist ant
gr own
bl ow
sen s
* *
1 2
C as
as leep
C T
ag ement
tou ched
mo ving
offic ers
h orn
ct r
Ly d
cham ber
ab y
if f
o g
vil le
fa ult
pos ing
a be
sacri f
hear ing
add ition
soci al
Mon te
e ternal
ap preh
act ually
prep ared
extra ordinary
wind ows
possess ed
D E
b ent
n s
p ic
re vol
b ul
ac ious
sur round
present ly
inde pend
ris ing
ol ly
ter day
cond itions
t welve
it ated
avo id
fin ed
t in
ef fort
E liz
d a
pass ions
Nat ásha
Wh ile
ag s
Ar amis
meth od
is land
wo re
mon d
mon th
c at
Wh ich
beg un
dou ble
pen se
remember ed
univers al
i li
tr ain
orig inal
freed om
S m
im age
un k
cr own
usu ally
we ather
spl end
e en
on ed
ri e
my ster
te eth
meet ing
J ack
um ph
ap h
good s
ste ad
sp ent
ris to
fav or
P lat
he at
c ra
should er
act ive
count ries
u ced
tong ue
i x
t ired
m as
p red
effect s
A M
J u
b ill
art s
any body
use ful
comfort able
who lly
sm iled
fin ished
wit ness
an gry
mo d
eng aged
mid st
Char les
e ll
for ty
any one
sex es
neighb our
cons ist
1 4
sym path
M ade
be comes
pr im
oun ced
ho ly
great ly
bre a
possi bility
L i
S er
ad vent
ro te
mar ket
belong s
rup ted
clear ly
sla ve
ac cess
room s
remain s
establ ished
ch ing
cons cience
dist in
r as
r al
C er
y er
Sp an
V ille
a im
t is
might y
near er
n ine
n ice
was h
c ous
st ation
are st
po lice
follow s
ye llow
Rom an
i ally
p in
am b
Bes ides
en ced
e ign
s our
ext ent
Pr in
Ar ch
play ing
sold iers
comm only
anx ious
m itted
w rote
atter ed
mis erable
list ened
not ion
lo gy
oun ce
express ed
f ly
act s
st ates
gr owing
Fir st
M er
h ence
st ick
com plain
wor king
resol ved
desp air
consider ation
att ribut
sm iling
org an
fr anc
ind ic
wor n
phen omen
br own
ific ation
fing ers
cont ro
want s
citiz ens
her o
Lou is
proper ly
W est
i ety
no se
ter m
list en
C risto
i en
i tor
p ardon
door s
sou ls
D iam
s ought
ur s
fe males
vo y
yes terday
occup ied
t aught
find ing
ro of
open ing
Diam ond
bless ed
al ous
Th ough
regard ed
fles h
è re
is n
st ones
one l
not iced
tr ay
C ather
m at
in vent
real ity
qual ities
p ill
cho ice
explain ed
fami liar
co ok
Nat ure
Cather ine
im per
I R
I m
s me
good ness
é e
ud ing
aw are
A G
p our
Lo ok
sub s
ru b
je an
watch ed
be hold
conscious ness
Ho ly
ce ased
should ers
ev ent
adm it
Val jean
C our
re col
po l
ful ness
lu ck
EN T
un cle
ind ust
reason s
dro pped
P ar
ld om
Jo e
Rus si
acquaint ance
B l
ex pense
ó v
for ts
do ll
pie ces
se ated
sel ess
w ed
t um
é n
far ther
fing er
Q ue
your s
c li
ev ents
as ide
thr ow
cu ri
mist ress
n ur
kind ness
prof it
Ville fort
l ines
think s
ac les
exerc ise
empt y
om in
sha pe
interest ing
T O
se ldom
be lief
pre par
prison er
1 3
re moved
man ners
art ic
ak en
On ly
prov ided
W o
to ri
al le
al ive
call ing
cho ose
tell ing
reason able
to med
wh ale
du ke
Dor rit
w arn
sing ular
L ong
tri umph
fortun ate
S y
ho le
cr it
in vol
se ized
ep ing
pre ci
F l
C ON
N e
b our
up per
every where
copy right
li a
ain ted
moment s
dr ag
complete ly
dread ful
prom ised
speci al
Mo re
f ier
thor ough
moun tain
pra ise
ent r
adv anced
danger ous
ex plan
gr ate
fall ing
opin ions
L L
ter ror
lic ity
exe c
F ri
tr an
ob sc
ash ed
w retched
de tail
quiet ly
const it
bir th
em ies
in formation
cent ury
dist ress
Gree k
in tim
inhabit ants
increas e
st at
im prove
pr ud
abs ence
A gain
L ittle
power ful
prob able
d ish
part ly
des ired
wait ed
spirit ual
f aint
pro pri
mort al
grad ually
card inal
cor rupt
cor respond
kne es
es cap
mar ked
en emies
cl es
r ant
mis ery
1 9
sur face
bu ilt
import ance
C l
w heel
sp here
rend er
accus tomed
do ctr
hi ther
au x
mar k
hab its
p an
Be cause
int ended
C len
per ceive
der i
shi ps
franc s
Clen nam
ens ion
ab and
twi ce
at ers
argu ment
mer cy
rend ered
la ke
div ided
r om
s per
hur ried
h ate
re str
ad es
00 0
g ame
v ig
C ose
S over
y r
sec ure
r ank
st up
among st
distingu ished
X V
ag g
com mod
int ention
pur ch
princi pal
wh ence
point ed
care fully
imp at
arr ange
as sem
le on
Lu ci
k ni
a ient
gri ef
Lyd gate
k itch
im men
ur ge
occur red
kind s
Cose tte
? "
man u
fr uit
G over
w ing
but ter
where as
king dom
du ll
sk in
log ical
B er
ign ed
th reat
cult iv
sol id
subject s
pos es
Hen ry
re mo
sc ow
par ag
E s
d well
bra ve
ser ved
mons ieur
am ed
fam ous
interest ed
N apo
od d
Th ose
fright ened
charm ing
soon er
ed ing
hur ry
curi osity
le ar
sa cred
lay er
conne cted
f ate
t u
never theless
contem pl
in quired
qu et
concer ned
H ur
heart s
W as
ch a
ed s
ch an
remark able
pr int
app lic
cal cul
dro p
separ ate
N O
st ars
ang ed
S il
we eks
sup per
B us
T wo
wor st
“ ‘
co ol
hor ri
dri ve
pound s
deri ved
M ike
cor re
D iv
lif ted
manu fact
sc ri
s and
ut ed
Napo leon
A lice
de fect
con qu
pl ant
distin ction
ch est
ob lig
br ain
mind ed
fact s
fif teen
in ced
un ited
suffic iently
C or
Ro st
v ous
gr im
const itution
gold en
smo ke
the a
com posed
const ant
Em peror
f are
pro ach
nam ed
oper ation
R I
O liver
S h
fe at
ex ten
ru in
bu y
gu ess
col oured
possi bly
infer ior
brid ge
k ov
or m
am ount
ap ped
Eliz abe
ll s
or ity
res er
suffer ed
Doro thea
2 0
O O
en cour
exist s
assu red
? —
A c
fin ally
wish es
Nor th
dign ity
kitch en
read er
w and
con tempt
est e
ves sel
Ind ian
con dem
inter val
ru sh
— “
interest s
increas ed
me lan
approach ed
when ever
In deed
at tract
vo ices
St ill
mer ch
ig ne
di vers
p aren
my st
vi le
cred it
build ing
B E
si ze
dire cted
mist ake
Po or
ac ing
cri pt
prof ound
cho ly
watch ing
u me
no d
dut ies
t reas
light ed
bes tow
moun tains
Elizabe th
ang ers
Rost óv
O ld
ant ag
laugh ter
Sun day
dis position
high ly
ish op
ev ol
reg ul
charact ers
d ying
as ha
ud es
ignor ant
spe c
gl ars
reg ret
ration al
A my
T ake
pl us
pr on
rap h
e c
t it
ac compl
sort s
descri bed
parag raph
g s
z y
de ck
rul es
stor m
suffer ing
re ve
wor ked
fl ed
cap t
Con st
carry ing
immen se
melan choly
ant i
l ted
r é
fo l
ra ise
decl ared
F e
pract ice
Dan glars
ex cess
app lied
resu med
prec ise
acqu ainted
intellig ence
H ouse
con vent
nat ive
found ed
sold ier
dim in
squ are
c ow
i tors
re proach
and a
fl ower
Be fore
sympath y
et c
re quest
la ce
pa pers
cor po
plain ly
ct ive
so ver
ck ing
act ed
bri lli
su it
od y
inter rupted
immedi ate
am id
form ing
const antly
hop es
Cer tain
be coming
pri or
val u
succeed ed
sh ine
one ly
contin ue
D oc
c amp
in her
is su
dog s
sa ved
v ice
wound ed
cir cle
um ble
lar ger
sever e
sover eign
u rious
am az
B ath
M E
k y
th under
sc he
adv ance
P ri
f anci
v est
Un ion
an gl
appe t
cry ing
Sp ir
asha med
ther n
act ual
U N
s ink
where in
Wo od
de l
ide al
hop ed
whisper ed
spe ed
Mic hel
w aters
en orm
su pre
as p
she l
ci al
sound s
occas ions
cous in
explan ation
as pect
need s
m atch
mo cr
dis appeared
August ine
ev idence
pict ures
ac quired
com pe
ian a
bu sh
field s
ét ait
conv inced
un able
f ic
stand s
jo in
cr ime
roy al
cross ed
concl usion
U S
lo ose
bus y
ref lection
remar ked
b lame
mo is
o ke
or ous
lab or
as sure
pro posed
sur d
affect ed
apparent ly
o st
it ure
G en
ar se
se cur
ers layer
De erslayer
hid den
e Book
vi our
col ours
ash ing
S at
a e
per fection
pre cious
cast le
S outh
o is
viol ent
fr ag
co ast
dis posed
adv ice
A u
ob ed
pa use
rest ed
A no
U pon
f ur
ak er
continu ally
ad o
um b
profess ion
este em
wor ship
circumst ance
exc it
ni kov
mag istr
des ir
H ad
s ci
or k
rog off
St rogoff
set tle
stri ct
shout ed
y ards
ul ty
dis put
ch im
est ic
prov ide
I X
T ell
W ould
n es
un happy
nor th
ma jesty
fl at
Plat o
al ing
mar ch
ing en
Mic aw
t a
com mer
Th om
lim ited
pun ishment
d ur
et s
L iter
M other
m adame
v ague
ri g
fool ish
con tained
cle ver
ens ive
ol as
splend id
Micaw ber
at ors
ab surd
ers on
W ord
Fr an
exc ited
D ant
o h
name ly
Mar illa
Ano ther
be tray
pl ent
ci vi
imp ul
Fo ot
M as
co re
tor t
vari ety
t ies
ok ed
ment al
gr ay
cot t
ct ure
ul ous
je alous
right s
corpo real
cand le
lear ning
bran ches
exec ution
3 0
n ut
lo ver
mois elle
en v
le vel
Pr of
agre ed
stup id
J im
r ous
int u
i est
r age
ha ven
end ent
free ly
pop ular
D es
se es
mon y
let s
adm itted
inno cent
D ick
rel ated
ma j
ster n
prev ail
there by
Al bert
proceed ed
t es
al es
att ent
u seless
lit er
cre ation
pre ach
relig ious
kni fe
Doc tor
i as
spe cul
admir ation
lo ving
qui res
18 6
r ust
co very
gl or
c il
ef forts
comple x
sla ves
J ew
con ceptions
exc use
bring ing
dri ven
Ben ham
U R
g ently
l ts
g le
de lay
ren ce
sure ly
bear ing
R ich
it ate
ker chief
u ries
consider ing
virt ues
myster ious
regard s
extreme ly
love ly
I r
th ri
as king
sty le
Span ish
f light
m ud
Bus sy
ab stra
pro ject
ist ic
ga thered
Liter ary
re put
to ms
ab b
ex ternal
res pon
sent iment
nation al
pursu ed
exe cut
ver t
trem bling
doctr ine
fe ared
gu est
gain ed
wel come
weak ness
da ily
e motion
part ies
sha king
Pe g
Arch ive
ad op
ac he
do zen
list ening
former ly
lead ing
D iana
be held
sign s
conne ction
reven ue
D u
ab und
end er
pract ical
cloud s
comp ared
comm itted
inv est
per mission
Jud ith
cab in
grou p
5 0
h om
lu x
intellig ible
Foot note
er ror
fellow s
chang es
pos itions
where by
supre me
P a
cho sen
thy self
burn ing
in formed
fore head
iz ing
col or
observ ation
ex per
ex ped
pro sper
moun ted
1 1
Mar ch
anx iety
re jo
to cr
des per
num erous
sle pt
dro ve
ignor ance
est ate
int s
iv ity
ref lect
hill s
Y OU
le x
ind ul
pro spect
ru el
gen ius
p isto
li ft
fe ather
em ark
ie u
cli ff
incl ined
faith ful
ke eper
night s
got ty
gg le
sal t
guard ian
happ ens
strong er
stri king
frequ ent
thro at
quis ite
Peg gotty
T Y
c ure
g ay
fa iled
ob st
R ask
S ince
m our
ot ion
arm ed
Rask ol
ar ise
bu ried
individual s
sens ation
Raskol nikov
ke ys
ab o
co ll
chief ly
civi liz
bo som
ob tain
stri ke
delic ate
w ings
thr ust
ret reat
set ting
mur m
sav age
S hall
an al
at o
C r
sou th
conf usion
Mor rel
G host
pre fer
hor ror
pen et
paren ts
S a
m ile
be ha
ust ed
sing ing
entr ance
U nd
d ance
g ather
fac ulty
J acqu
le ap
kind ly
delight ed
re lief
ac compan
ind ign
gre es
D ar
ab road
some body
den y
S ub
ag ent
P y
V en
b aby
ash es
S pe
e gg
de monstr
pull ed
res to
she ep
Certain ly
r um
with standing
de grees
uni form
hang ing
voy age
F OR
b ought
b owed
in side
as much
don ations
TI C
d é
ar ose
ish es
fi x
mist aken
magn ific
z ed
fe ver
ru shed
mem or
mot ions
deep ly
so re
bo re
hi bit
dom estic
smo oth
op s
pre jud
neighb or
r at
ut most
sent ence
horri ble
P ower
k n
re lie
ast ic
ser ies
king s
Mo scow
incl uding
appoint ment
ct ing
Will iam
H igh
f und
friend ly
phys ical
P antag
att ended
comm unity
escap ed
Sover a
ag ger
em bar
hand kerchief
f il
can o
bri ef
subs ist
he ap
per pet
ex ha
mult itude
: --
L au
de mocr
dest ru
Thom as
A C
c ate
un just
we ary
Never theless
P et
dream s
thorough ly
C op
re ward
aris tocr
C ass
p ick
ro de
un certain
em in
des ires
arri val
Prin cess
Pantag ruel
M any
re fer
st age
own er
inst antly
close ly
kiss ed
ro t
Ha ving
indif fer
gre y
l ack
gu ide
An y
her s
con stru
cont ribut
aw ful
hu ge
V an
m ild
un ion
ret ch
d ans
re comm
con sum
ag ing
ho sp
.. .”
sho es
medi um
address ed
being s
there of
sp are
bre aking
; —
e tern
con ceive
accept ed
Luci en
j um
to ler
pe as
mer it
prev ious
t ask
pe l
offic ial
shad ows
fr ame
own ed
int ent
pat ient
Ger man
grate ful
c ence
m ess
indust ry
wi d
was n
ho llow
br ow
does n
num bers
fig ures
viol ence
sacrif ice
J ames
al thy
pro ble
need ed
main tain
trad emark
li er
li ance
par l
assist ance
sour ce
Dant ès
i able
not es
demand ed
cheer ful
fe ctions
pl um
less ly
pi pe
at ory
rapid ly
st retched
ud der
contr adi
touch ing
tran qu
P le
ad ing
friend ship
reck on
Sm ith
M at
ic ian
um ber
tri al
concer n
resol ution
Me g
phenomen a
N ay
in su
pa used
return ing
imag ined
Ro sa
arr anged
qu it
some where
has te
small er
recogn ized
J es
ac coun
mil itary
inquir y
philosopher s
G ar
mo dest
than ks
iss ion
, )
lo ves
p ow
lo c
sk ill
Rich ard
stru ggle
cent re
compar ison
Mil ady
B on
Z ar
ent ine
de liber
M en
b ree
s an
est im
fl ing
glo omy
attach ed
r ase
dis ci
sp end
bot tle
Col onel
am use
____ __
occasion ally
________ ________
Gover n
________________ ______
D uring
ll a
gaz ed
lean ing
deliver ed
cr ack
______________________ _
M id
con vey
fair ly
master s
s ive
é s
want ing
ll en
am ing
except ion
sex ual
sh alt
vi ct
show ing
prom pt
2 2
D en
we t
strong ly
wa ist
Que en
Sovera ign
p ul
pl ed
fl our
gener ation
accompan ied
A lex
ust ra
light s
Some times
D uch
Y ork
c ere
r ade
per man
ill ust
ci es
Ch ic
human ity
utter ly
separ ated
destroy ed
s lo
any where
cons ists
ath ustra
enter ing
Zar athustra
) :
um n
dr unk
conf used
div ision
Y e
st uff
ru de
swi ft
G ive
W H
p ier
ent reat
where of
acc ur
fall s
hat red
soft ly
suggest ed
associ ated
un ch
em b
dis course
ot ing
M us
N ich
R ight
p ack
ir gin
C hi
E lin
S up
for bid
ne l
read ily
view s
independ ent
Spir it
Elin or
t ext
ac ket
sm ith
W or
he ll
cur rent
Pro v
P hiloso
re cord
four th
advant ages
plent y
o re
ou b
at ives
ra ising
coun sel
secur ity
s ch
experi enced
dev oted
L ike
Q U
s wall
tr am
app ly
pain ful
imag in
treat ed
Ed ward
Es ther
me at
pleas ures
hum ble
ant e
Co ll
Div ine
F air
ob v
che eks
pat ience
employ ment
Brit ish
Und er
c ret
l iness
x im
ess ential
il ities
dis cer
uni verse
Made moiselle
doll ars
Jacqu es
S cript
le v
heaven ly
surround ed
pow der
O W
e leg
per ception
son s
ref use
emp ir
conce aled
intu ition
I ll
ap a
Th ank
suspic ion
Nich olas
U T
l id
call s
ph rase
compan ions
thes is
g gl
part ed
see king
min istr
char ged
delight ful
li ken
sister s
ag on
through out
ener gy
ext ended
A ust
D in
s li
ce ase
ang le
mem br
En ter
ush ing
brilli ant
ro lled
fin al
Hen ri
; ”
u f
ar in
pain s
P al
and y
il ty
ast ed
trou bled
supp ly
distur bed
lo v
cou ple
sh udder
ac knowled
quar rel
! "
d s
s ar
sha ke
shad e
V er
s of
se igne
quar ters
fier ce
r ide
y ce
val ley
develo p
p y
gl anced
tem por
se lection
ce an
so il
bl ance
turn s
care ful
lu i
fac tory
difficult ies
desc ended
eld er
Const itution
O L
in ity
per mitted
Com mon
ke en
get s
2 4
B et
st iff
for give
ro cks
te ers
exam ined
endeav our
Cas au
Fran z
al ike
lo cked
sto re
wonder ed
Val entine
C he
T is
sh r
live ly
preser ve
tit le
b ac
ab sor
what soever
dis covery
iv al
in y
en ch
le br
ce lebr
de em
part ic
Pan urge
fat al
feat ures
Casau bon
S i
l amp
s lip
u le
al oud
lo cal
tr ack
every one
exist ing
according ly
bur y
belong ing
murm ured
liken ess
n ail
ret ired
Bro ok
ter min
lay ing
Pres ident
legis l
myst ery
un expected
bo ots
found ation
young er
bor ne
es ter
lo qu
bur den
heaven s
fat ig
content ed
stro de
obed ience
m am
re ference
si bility
vis ions
pray er
S I
b ones
v ul
on der
at tain
he a
un fortunate
ub li
desc end
H am
M ag
n in
o logy
add les
V II
b ag
b ull
po ver
ind is
ul ated
mi xed
seigne ur
re quires
aw ake
differ ences
satis f
Brit ain
Lau rie
A y
A unt
F red
mo dif
hand ed
reason ing
un conscious
ge on
clo th
AR TIC
enjoy ed
conce al
T ur
c endent
t ale
av ait
col lect
sec re
represent ed
distingu ish
benef it
i h
de mons
mer ry
find s
stru ggl
drink ing
furn iture
e ast
re con
sel fe
wo ke
. '
re membr
sh ining
ho tel
ps y
col on
gra v
Cour t
C raw
o le
in ward
le ctions
st ated
she w
att itude
gener ous
================ ================
convi ction
excit ement
re c
wh ist
lo red
then ce
des ert
os es
swe ar
prior i
B or
i um
r ass
hel ped
def end
B ul
en counter
---- ”
bran ch
H om
m ate
cont ri
gu ilty
av ail
F a
ri er
con tain
sp ark
inc ere
had n
ul ts
Govern ment
H all
M ad
c rew
t ables
po le
own ing
Wh ite
as ped
be ard
ro ll
belong ed
glo om
hy po
corre ct
r am
w est
de ceived
red uced
recei ving
e ve
mil k
van ity
aston ished
Craw ford
M az
l ust
te ar
pet ition
appet ite
C ad
P ol
g utenberg
l ou
so lic
con fined
aw n
dom in
success ion
t t
de fin
ess or
St re
trou bles
remo te
cr ates
M ont
g own
re ign
ob jection
jud ic
enter tain
concl uded
fami lies
a per
e ating
th ither
al ty
exist ed
ext rem
miss ed
impress ions
fle w
fortun es
ww w
H ugh
we igh
pro position
em er
cri es
On ce
prote ction
ob tained
hor iz
beast s
S ha
b ond
l ately
r aces
u ary
su spect
stair case
introdu ced
legis lat
embar rass
bo ats
remain ing
Se cond
remar ks
depend s
er by
spr ang
pal ace
d ancing
the ory
ent ed
was te
Th ree
clo ak
grat itude
2 5
n aked
his tori
sla very
Jes us
Din ah
O ther
to ss
be e
ref lected
consequ ences
Ph œ
gif t
sme ll
D is
l ink
not withstanding
Ital ian
c kets
the at
ne at
pos it
pay ing
Ind ians
trave ll
ming led
S cot
se vent
-- ”
b ase
re new
is ure
sh ill
destru ction
ra il
ol s
heart ed
rel ative
ste ady
sleep ing
Jud ge
gaz e
mult ip
OO K
Maz arin
C oun
H E
w ages
aw k
Him self
non sense
W I
f lying
de pri
con sol
exam ine
Bo th
Har ry
p ens
st ared
ex tr
tim id
mon arch
leg al
mor ality
Ob jection
t ied
pl ess
gr anted
six ty
aston ishment
fet ch
Prof essor
D ear
li est
sa ges
! --
ing ing
ul es
ho les
fir med
beg ins
fanci ed
C am
h int
n arr
mis fortune
XX X
preser ved
ca ution
step ped
N either
c art
d ar
p age
as sur
ch ain
spe cted
ARTIC LE
D av
V III
le isure
safe ty
Stre et
J ose
empir ical
ad ministr
po ison
cler k
Russi an
2 3
F re
more over
ug ly
Mo st
G reg
L uc
_ On
p ent
s incere
out e
ref used
un easy
It s
LE T
d ra
sh one
qu es
jud ged
show s
Pe ople
V E
p ushed
v ary
ch in
per for
af firm
pover ty
t i
inst it
incl ination
farm er
impul se
I van
O ff
f lies
in conven
st raw
appe al
An ge
approach ing
d ir
l of
m und
r ated
gh ost
gr ant
def ence
bor row
indiffer ent
Jose ph
, [
ir rit
Th én
furn ished
process ion
Ab out
Thén ard
C al
v ac
ad s
fo lly
sy n
contro l
detail s
reput ation
E ach
some how
ass ert
unt ary
che ek
B OOK
M ed
e cho
old er
mot ive
improve ment
ter ed
ab sent
gr ap
thr owing
lim its
grow th
P ort
gr ind
pain ted
ele ven
hun gry
G re
as y
ve t
ro v
she ba
vent ure
Chic ot
g ust
m uttered
by e
p atch
il ly
end ure
pass es
With out
Am ong
um in
return s
fight ing
develo ped
maj ority
wi xt
self ish
sc ream
A TION
n ay
eas on
Gr im
hast ily
gif ts
Bath sheba
) ;
B ound
S pain
land lord
depart ure
eager ly
Ital y
2 7
C iv
th a
trave l
precise ly
M AN
we ap
ground s
Al as
Bar on
ch or
fl atter
pat ri
distur b
J er
R ed
per formed
em br
class es
artic le
Rosa mond
Bul strode
H arri
sp ort
sol itary
A fri
v it
re fresh
up stairs
af fections
ty r
Mar ian
deter mine
prison ers
ii i
mill ions
f oun
not ions
instru ment
fold ed
en thus
point ing
determin ation
distinct ly
pic ked
re cover
ult ies
rid icul
slight ly
hither to
magnific ent
C ont
M ur
r ang
ser iously
Se ction
Marian ne
th ine
per ple
et te
ap preci
pro test
act ing
concl ude
G H
M in
s well
re covered
id le
us ions
orn ament
aw ait
utter ing
Ro y
deb t
obsc ure
in asmuch
ex change
fore ver
Al though
Gr and
M itch
R ob
me tal
val id
hold s
exceed ingly
2 6
B al
ver ing
fe ars
over come
nur se
lof ty
B ra
E ar
P RO
d ared
Pr ay
th read
trans cendent
horiz on
2 8
L ic
en light
we ed
chang ing
cogn ition
daughter s
distribut ion
kno cked
remembr ance
if ying
ex posed
sc orn
lie u
wr ought
town s
he ed
sun shine
ris k
lan tern
Harri et
anc he
enjoy ment
simp licity
prep are
Au thor
d ain
z ing
inst ances
ele ments
a el
the w
su st
if ies
O ut
re move
si p
ru g
emp ire
command ed
descri ption
Hur ry
sof a
Mitch y
p up
in sp
ur al
br ings
less ness
enorm ous
Cop per
S c
u a
id ents
for ces
su s
so b
press ing
fac ulties
repe at
Lic ense
S ol
r ange
bar bar
cop ies
subst ances
wa ves
Mat thew
o cean
re le
co arse
tell s
che ck
uc ket
mid night
pray ers
stay ed
Every thing
vic tory
vul gar
p ace
ter ing
su bl
pl ate
sign ific
Ed mund
C O
R i
and s
wo l
wood en
depart ed
vo c
exam ination
move ments
re med
mo od
tend ency
resem blance
su gar
am s
ex port
bet wixt
tro ops
beat en
apart ment
condem ned
compe lled
o y
r ag
id dy
su spected
sh ri
ty pe
feel s
jud ges
doubt less
R A
f aced
con ceived
road s
un ning
pl ants
develop ment
l ap
n t
in visible
op ing
sent iments
scr up
bas ket
citiz en
Du ke
Bound erby
ú z
st aff
ve get
sen sit
fl ag
que er
app ing
prov in
pop ulation
g or
p arent
in quire
cap acity
interval s
glor ious
H on
K ut
b la
art ific
co in
_I _
t ight
pro phe
op position
beg ged
dr am
assu med
indif ference
etern ity
L at
ci o
bod ily
prin cess
proceed s
deser ted
applic ation
perfor man
Copper field
ne arest
eas iness
pret end
brother s
establ ishment
---- ----
commer ce
arri ve
aff li
desper ate
c attle
man aged
tr ace
sc attered
Ar isto
increas ing
earnest ly
mut ual
Ac cord
Thénard ier
j un
op ed
rep ublic
vis ited
Be th
main tained
neighbour hood
egg s
úz ov
Kut úzov
i bly
Where fore
C e
G ent
s add
ll es
ex ert
tr ait
com men
op press
op posed
bu ck
produ ces
poet ry
tender ness
Duch ess
V ander
m ber
se ed
st out
b ou
mar ble
respect s
tax es
antic ip
More over
vict im
A D
B ishop
it ating
fl ow
ens es
sk i
wish ing
persu aded
A hab
s ins
en n
ver ted
ro ar
po ly
comm it
sup posing
eng er
gy pt
ban ks
dep ths
valu able
cott age
S par
sh al
dis grace
gover nor
Tr ue
dev otion
Vander bank
it ute
aw ak
Pe ter
cler gy
magistr ate
at mo
ad vis
ag ues
cl am
right ly
inter nal
father s
appear ing
inv ited
per form
sav ages
E gypt
pu bl
fee ble
reven ge
Sy me
L ove
S ay
f ain
m ast
in justice
be l
me chan
ri el
od o
char ity
count ess
sil k
cei ving
else where
i ency
where ver
head ed
certain ty
pri vile
aris es
van ished
consu lt
purch ase
f urious
n ig
out ward
fr ank
earth ly
S en
l ament
p ave
ad ise
me ad
light ning
Do es
decl are
Bro oke
Ill ust
le af
ic ing
us ive
man age
long ed
dec ision
F er
w ake
se y
ner vous
vis itor
Ad mir
ov na
Lu cy
argu ments
communic ation
2 9
L or
k in
do st
mar ks
law yer
Dor a
Li fe
sch ol
F lo
J ar
R AN
st al
un easiness
pl ans
gr aph
el f
ma xim
contr ast
gest ure
addition al
merch ant
satisf y
F ort
er ies
to tal
be loved
-- “
pos itive
reg ion
respect able
Tr addles
a fore
b ows
g are
o te
ca val
cont act
prin ces
ste ep
I l
R u
S al
p per
v id
re ject
ab rupt
act ivity
ref und
trust ed
Ma jesty
g ates
st aring
sa ith
str ain
So crates
Un cle
eight een
Europe an
ad j
Long don
R os
R eason
c am
st am
rep ent
ste am
aver t
ridicul ous
I sa
o ak
s ank
de te
enter pr
rid ing
rid ge
ele ment
sail ors
prote cted
mach ine
fol ks
Fa ith
kne e
dur ation
jum ped
n ie
ul tim
sto ries
ef fic
chim ney
feather s
re sh
to ries
res our
wild er
resu lts
intellig ent
sensit ive
dis sol
col lection
fast ened
establ ish
treas ure
dir ty
m art
an no
no vel
ce as
ow e
ex hibit
com passion
bl er
new sp
regard ing
represent ation
gun s
V ol
d ate
li able
stand ard
pleas ing
ru ined
av al
fed eral
advent ure
M ac
W AR
c off
p ig
to morrow
so ber
He ath
vers ion
ES S
por ter
amb ition
v ine
ri b
de t
reg iment
speak s
g am
h it
pl un
lean ed
sli pped
N i
sa ble
con ject
ie ux
str angers
sha w
trans port
chap ter
wand ering
proble m
A gn
K night
an ks
om s
itt y
tor n
fear ful
lin en
prevent ed
hung er
C ity
P R
b ay
n ic
er a
ri val
dist ri
obser ving
de eper
fl ung
Al an
flo od
dress ing
philoso ph
C lar
c ities
r adi
wi lt
id er
oun g
dis gu
rest ing
Le ices
gro an
descri be
preced ing
attribut ed
T ru
o ath
ap s
pre y
part ial
discus sion
hide ous
prud ence
print ed
B ou
f lame
et ies
Fr ank
di ct
Script ure
l am
as certain
small est
Be ing
pu zz
prote ct
p est
w are
he m
he av
con form
dis play
vo id
ma them
wind s
produ ction
accord ance
obv ious
s often
— —
ch ose
wh ir
pos al
compreh end
dep th
pron ounced
Leices ter
e ous
re ferred
int ense
mer c
lad der
pret ended
alter ed
cano e
administr ation
e loqu
it udes
will s
br ows
int on
cour ts
swe pt
fi res
C I
F au
lim bs
support ed
V irgin
u ct
sh ire
equ ality
deed s
revol ution
. [
D I
ir ing
us al
mis chief
prob ability
sho ck
wonder ing
Americ ans
trem bled
A B
h ated
s ions
t ar
u ge
me al
18 7
aband oned
eBook s
Dav id
, '
J an
li kes
oper ations
pursu it
horn s
transcendent al
Heath cliff
B ha
D uc
T er
W ind
b att
u ity
en es
it ing
se am
no is
ac knowledge
wash ed
Prov idence
Illust ration
C ong
so v
tom b
gaz ing
artic les
Cl are
legisl ative
Jar nd
M art
_ you
k ho
li ament
ag itation
ann ounced
Po y
subst ant
aband on
dar ling
j aw
ic o
ca ve
part ing
distribut ing
neg lect
Jarnd yce
Poy ser
B ur
C ath
k a
some one
gr acious
col lected
inc ident
di am
hum our
proceed ing
Ca es
disci pl
Agn es
g ig
che on
rest ri
reach ing
firm ly
pol ite
F our
d ess
dis agreeable
sp ake
hi b
Rom ans
F in
M ich
tor ted
keep s
thousand s
atmo sphere
v re
is lands
wi ves
de finite
qu el
sto pping
nat ures
appro pri
incl uded
motion less
G ab
P at
p apa
so o
am ents
col le
grand father
admir able
sigh ed
accompl ished
re pose
li qu
sh irt
el ly
dis cour
thr one
last ing
six teen
bur g
invest ig
cret ion
absor bed
N anda
ou ter
be ars
fe ast
art ist
put s
sil ently
ann ual
address ing
rare ly
S n
W al
d art
y onder
sen su
ub b
che ap
cent uries
ches ter
bless ing
fright ful
distribut ed
guest s
to day
pro dig
ink ing
off ence
comp ly
low est
wal ks
chair s
oblig ation
exten sion
diam ond
Y oung
ing o
con tains
po ckets
sub mit
vo te
poet s
or se
im ony
li br
de li
day light
sail or
C reat
H al
p itch
will ingly
lic al
cus toms
neighb ours
favour ite
relie ved
Philoso pher
E ast
j ur
su itable
ab led
emp lo
exha usted
D em
S tr
re call
ul ate
des ol
state ment
Ind ia
colon ies
H as
con sp
ill es
Wh atever
just ly
par ish
conf ident
inj ury
obey ed
prosper ity
F are
V ic
of fee
im posed
dr ank
doubt ful
Bha er
J avert
R a
p ine
ay ed
whi ther
co ck
Th rough
la v
in se
un ted
whi p
she et
He p
dis appointed
bl ows
arch ite
ny a
Mer dle
NO T
reve aled
resto red
awk ward
W ar
l ion
l onely
s ang
the tic
sa ving
gl ow
ph ant
understand s
recogn ize
Gab riel
M oses
S an
g al
h oney
t les
ge ance
tor ment
eas ier
hel pless
stru cture
Pan cks
I M
b ind
m ou
t ide
” —
ri ages
there in
din ing
burn ed
S ó
c unning
p oured
he e
ag in
do l
particul ars
polit ics
recol lect
perman ent
B a
m and
p il
th ic
ch op
pro vision
ire ct
should n
ative ly
moder ate
Só nya
— —”
an try
ri ches
coun ted
house hold
pur ple
ext end
govern ments
cow ard
H AM
b und
o o
s ending
up right
heart ily
pur poses
appreh ension
be ating
ur ged
dis appointment
med ic
unt arily
uten ant
tow er
adm ired
prof its
persu ade
B ucket
s que
er ation
to t
st able
ag les
co lored
Christ mas
pro visions
adm ire
meas ures
4 0
W inter
s ire
z ib
am iable
ac company
ca ut
row s
eng agement
command er
exp lo
conven ient
inf li
West on
Admir al
kho v
zib ah
D un
b ark
f ant
r ud
ó n
wh it
sound ed
dro ps
lead s
OU R
occup ation
pred ic
bestow ed
Hep zibah
con firmed
form al
expect ation
sequ ently
har sh
Me an
prev iously
restr ain
shill ings
K now
W ere
d amp
g ory
com position
te au
ho re
cor por
bar on
dri ving
subl ime
H u
P ip
b un
f ow
ra th
hand le
God s
TH ER
pur se
spect acle
hun ting
reser ved
O ak
as ion
un usual
we aring
ur ity
fe ed
right eous
port ions
sign ify
blo om
org ans
eat en
inno cence
_you _
w hel
ro lling
sto mach
honour able
Mid dle
Grim aud
_ Ex
k not
p g
he althy
un like
tri be
hum ility
len ess
deser ve
superior ity
B ER
R es
l ac
m un
v ivid
ound ed
cept ible
bed s
civiliz ation
N ext
c offee
í sov
re tain
im ages
mon ster
lic y
vol un
bell s
Pa ul
wid ow
’ ,
en su
de arest
mo l
ill ness
here after
dis ease
ris en
lim it
pot ent
prud ent
arrange ment
Den ísov
Coll in
celebr ated
secre ts
H app
L O
N E
d awn
f itted
in ch
pl anted
ass er
mon k
ph an
jo ke
exam ining
Dar cy
Alex ander
heav ily
A ng
D ef
S H
b ased
pre ferred
So ci
... .”
accoun ts
ce l
ce tte
im proved
ill s
great ness
ud ge
des k
cut ting
exp enses
Just ice
kno ck
cultiv ated
v iv
is her
as sa
ha z
de er
who les
bro ok
comm ission
De ath
EN D
conne x
crit ic
conqu er
angl ed
adop ted
2 1
P lace
po ster
ear lier
tri ck
doub ts
Dor ian
Br ut
B ag
c ough
u ine
it z
war ning
acqu ire
gen us
attempt ed
material s
sci ent
c ured
j ob
lo s
sol itude
sum mon
cross ing
Louis a
B ible
d re
pun ish
Sm all
d ome
we eping
pl ac
sc ale
expect ing
dec ide
success ful
resol ute
fortun ately
heel s
bush es
Lat in
C ons
a us
j ury
ad or
po on
sil ly
xt ure
Christian ity
convent ion
T it
r ings
er o
ri ly
ag ony
gr am
vi z
serv ices
ben ch
Sa viour
p ence
in ner
in ches
ut ch
pre su
part ner
happ ily
Clar a
d at
e motions
j ail
s nat
con taining
ere ct
Gr ad
compl iment
erous se
brea thing
propri ety
Cad erousse
P O
x x
the t
ant ing
pl at
sub tle
aud ience
beha viour
recomm end
P AR
de ceive
co pe
sur vey
ctor s
swi m
Aristo tle
sle e
sign al
tract ed
drag ged
exper iment
acknowled ged
pave ment
D ed
f ury
as sum
ne gro
go s
bo ast
mar ve
virt uous
gard ens
assu me
fun eral
sche me
privile ge
G i
N ob
k ins
w rath
im perfect
ran ks
Some thing
cre pt
Pl anche
_ that
lo ad
inter rupt
run s
govern ed
phys ician
libr ary
B as
b one
f ought
ve x
qu ity
per il
monstr ous
E lt
n igh
v ices
en able
po licy
lic ense
gener ations
dire ctions
prom in
Ad a
ele v
favour able
inher it
indign ation
A v
A li
K e
P re
c raw
f est
fa x
off ices
seem ing
present s
fin ish
sci ences
defin ition
3 3
M al
X I
b ishop
mo ck
ach ie
bad ly
safe ly
meant ime
H ester
m ates
o il
ca ke
bar ric
mur mur
tin y
assur ance
foun tain
C ould
b ust
in ations
ad orn
we ep
lo sing
pro pose
tem ple
conf li
treat ment
super st
bal ance
alarm ed
cra ft
luck y
L inton
un willing
em ents
ak s
fif th
pot ential
mill ion
stir red
propri e
Planche t
E T
F IR
g ul
w ars
per mit
cl ub
av ag
gen uine
perpet ual
discer n
w ax
qu oth
let ting
au gment
inter course
sup position
pen ny
hind er
grand e
mes sage
rever ence
wed ding
disput e
Py n
or a
inc red
moon light
instit utions
V ER
b red
re a
se ts
ad vers
fr on
fair y
pat ron
origin ally
Son ia
eleg ant
E CT
S u
S ud
W ick
w retch
de af
ci ble
rel ate
Second ly
S to
r ors
to il
con firm
res ent
com put
excell ency
bon net
crim inal
Ste er
intim ate
fol k
anno y
E h
H y
g ue
o x
cr is
sun k
ste el
tempt ation
dri ver
slight est
C ham
ven geance
cle ared
add ing
cur tain
mot ives
teach ing
Steer forth
B umble
over whel
sm art
produ cing
war ri
condu cted
Pres ently
M ess
c ared
w ander
ex quisite
um es
after ward
inst itution
gg ing
crowd ed
exten sive
Sat ur
abund ance
ass ent
int end
inter ior
St ubb
satis factory
strange ly
har mony
pon der
angu ish
claim s
impat ient
shel ter
Cong ress
E M
H uck
P ers
S ep
r ay
re place
um m
el s
den ied
TH AT
sec ured
arch y
character istic
neg lected
corrupt ion
attract ed
grav ity
remed y
e con
z es
om on
ag itated
pass ive
post ed
inn ate
parl our
partic ip
Soci ety
T roy
t out
dis order
cer f
mother s
four teen
Me agles
extr avag
G up
i ct
t ip
ac ieux
ins ist
.’ ”
twi light
prepar ing
dwell ing
oub ted
de a
ins isted
sum mit
pursu e
Mor cerf
Gup py
i ot
be es
sh if
fl ash
inter pre
fort night
bar rel
bound s
meas ured
spec im
Knight ley
I LI
j ol
ha w
tr ous
el bow
gl ancing
form id
wr apped
land ed
concer ns
streng then
crit ical
calcul ated
J on
h ay
n our
as hore
wi ck
cand les
clim ate
stead ily
Elt on
? --
P ut
e u
p atter
s core
u ously
is k
we pt
light ly
gre et
corn ers
cre ate
separ ation
shout ing
invent ion
Fri end
sore au
coff in
d az
é d
re called
re minded
at tained
ter y
am used
ty a
mean while
care s
gall ery
nod ded
jealous y
Afri ca
a head
end ous
gr ows
inter view
gi ant
ref uge
trans l
Tr é
pun ished
reck oned
conqu ered
Fair fax
theat re
FIR ST
E X
R en
c um
f oul
g ross
” ;
re quisite
al o
answ ers
princi p
por trait
dream ed
warm th
def ic
commod ities
enthus ias
J une
P hi
ê me
can non
dis cretion
br ains
got ten
spir ation
affection ate
Law s
bill s
rous ed
insu lt
Phœ be
. ),
O c
P ur
o ge
re ception
de cor
sh y
ound s
br ush
gl it
sc enes
Mon soreau
ben evol
resem ble
amuse ment
performan ce
Nob ody
ar ched
lo aded
their s
fl owing
hear th
cent ral
produ ctive
swe ep
Rep ublic
contempl ation
Ple ase
Sud den
C ast
u ed
the dr
to bac
ic ians
per ceptions
ey ed
ret ire
equ ip
ref lections
distribut e
execut ive
obst in
cere mony
D ER
T em
ou ch
un pleasant
gl ac
child hood
rid or
evil s
moun t
ili an
A post
P art
u its
as ks
es se
dis mal
belie ving
eng ers
bar gain
possess es
formid able
B ob
B uck
T ime
f asc
re cent
id ay
she pher
gr asp
coun cil
acc um
Char ley
attach ment
Doro thy
env y
ubli can
scient ific
B old
D olly
I L
ve il
sa ck
off ended
down stairs
Ro chester
trave lling
thir st
AL L
connex ion
Satur day
tobac co
M ON
ap ple
la is
ho lid
less ons
ens ions
vis itors
start led
emb race
substant ial
4 5
X L
f itting
t ie
re mind
all ed
contin ual
stud ied
English man
preser vation
situ ated
XV III
lux ury
consol ation
S ou
p ages
w ave
in i
ll o
ma is
pain t
ball s
resist ance
wheel s
consum ption
G et
L ist
S U
f an
f ence
g ers
m ould
p aces
ê tre
but t
less on
ident ity
ax e
lod ging
impat ience
assem bled
desir able
Pet rov
travell er
Gent le
M ax
a ur
be ach
dis like
doub ted
di ction
dest iny
inquir ies
fail ure
amaz ement
betray ed
san ct
B ed
d ine
ad ia
lo vers
An im
AN Y
Com te
success ive
smo king
burn t
trad es
trad ition
Lor ry
Brut us
enthusias m
b ars
s ne
in form
re ar
ind irect
je ctions
str ained
cons isted
nature d
cal am
.... ....
grave ly
scr atch
err ors
Pyn cheon
d us
d angers
h ut
s way
w er
be wild
ri en
de mon
offer ing
** *
applic able
merch ants
evol ution
det ach
L ast
S ever
S cro
a ire
r oute
te th
fa ults
dis played
mass es
Sn ags
N one
S pr
v ag
in vari
he ir
tr action
ge ant
last ed
hundred s
imp se
liber al
depend ent
mi xture
observ ations
recol lection
Mich ael
ac commod
fa me
ass ass
si bly
long ing
vent ured
Her bert
pisto l
discipl ine
HAM LET
Snags by
R az
t ones
ex agger
co al
ade qu
gl impse
ting u
won t
contr act
Po pe
advantage ous
tum ult
Bon acieux
consp ic
Mean while
Scro oge
J up
L ad
f ts
j ug
an chor
it ious
ri p
pe ar
fer t
br ut
thought ful
sub du
comp ens
ane ous
comple ted
start ing
instru ments
M et
N adia
in capable
as ping
le ather
your selves
led ge
jo ining
sign ified
fi red
second ly
hast ened
stro ke
crim es
Sol omon
M am
ic les
wo e
school s
alt ar
deser ved
aver age
coach man
phenomen on
issu e
mour n
awak ened
Jup iter
G ard
H ist
p se
ex tingu
Ch â
rel uct
short ly
gri e
invent ed
Chi ld
deem ed
A then
B ill
F ar
a woke
b ation
en abled
con cent
dis gust
off spring
gu ilt
hold er
vol untary
prov idence
tra vers
song s
attribut e
Dem i
d un
nat ives
Is land
prov iding
hes itated
Fl int
Gre en
Sudden ly
E l
P E
R od
is ions
bl ank
writ ers
gri ev
pu ff
Ded lock
E nd
L ake
P ass
r ack
st uck
ain e
ap par
pl acing
vol ume
strong est
har ness
bour g
peas ant
plum age
wilder ness
m ature
o lic
p ir
û t
ch ains
ri a
ri an
tr um
ist ribut
consider ations
flo ating
cruel ty
Raz um
su ited
um bling
comp are
comp liance
impress ed
grace ful
Ben net
fashion ed
liter ature
D ash
d umb
en sible
ad a
ne phe
po sure
pri ze
num erable
IS T
wand ered
abstra ct
intent ions
nephe w
C K
b ade
h an
r att
su l
man agement
do cu
ho ok
war rant
Christ ians
learn t
Tom my
gro ve
glass es
fle et
mad ness
sharp ly
manufact ures
tort ure
Spe ak
Si kes
Caes ar
potential ity
Max im
p ag
li ck
ro ot
um bled
ble w
sha ken
adv ancing
Miss is
represent ations
gall ant
Sil as
plun ged
Tré ville
3 5
H art
O phe
a i
c ats
ri vers
res idence
pro cure
Pe ters
viol ently
vill ain
forest s
indic ated
bree ze
ih in
Scot land
Bold wood
S ure
r ays
is _
tr ap
prom ises
thir teen
sad ly
dish on
plat form
Ophe lia
es tern
st ers
ir regular
ro ses
un comfortable
ke e
ind uced
inter pret
cont ents
sy ll
Fr iday
pas sages
Col in
eld est
brea the
mess enger
Ra oul
Razum ihin
ch ances
pe o
fa ire
pres cri
par alle
irt ier
passion ate
super flu
afford ed
encour agement
A p
M ark
p ile
re fr
ar rested
ri ce
but ton
per forming
can e
sk ull
supp lied
stud ents
inv itation
judge ment
yield ed
strict ly
loc ated
depri ved
provin ces
sadd le
commen ced
L and
c od
ch ick
de fined
mo ves
ind uce
clo sing
min es
acc used
sk ir
mad am
Sub ject
contradi ction
Sen ate
H av
T ro
r ags
mo b
ur ches
te le
coun ty
work men
