{
  "version": "1.0",
  "truncation": null,
  "padding": null,
  "added_tokens": [
    {
      "id": 0,
      "content": "[PAD]",
      "single_word": false,
      "lstrip": false,
      "rstrip": false,
      "normalized": false,
      "special": true
    },
    {
      "id": 1,
      "content": "[UNK]",
      "single_word": false,
      "lstrip": false,
      "rstrip": false,
      "normalized": false,
      "special": true
    },
    {
      "id": 2,
      "content": "[CLS]",
      "single_word": false,
      "lstrip": false,
      "rstrip": false,
      "normalized": false,
      "special": true
    },
    {
      "id": 3,
      "content": "[SEP]",
      "single_word": false,
      "lstrip": false,
      "rstrip": false,
      "normalized": false,
      "special": true
    },
    {
      "id": 4,
      "content": "[MASK]",
      "single_word": false,
      "lstrip": false,
      "rstrip": false,
      "normalized": false,
      "special": true
    }
  ],
  "normalizer": null,
  "pre_tokenizer": {
    "type": "Whitespace"
  },
  "post_processor": null,
  "decoder": null,
  "model": {
    "type": "BPE",
    "dropout": null,
    "unk_token": "[UNK]",
    "continuing_subword_prefix": null,
    "end_of_word_suffix": null,
    "fuse_unk": false,
    "byte_fallback": false,
    "ignore_merges": false,
    "vocab": {
      "[PAD]": 0,
      "[UNK]": 1,
      "[CLS]": 2,
      "[SEP]": 3,
      "[MASK]": 4,
      "!": 5,
      "\"": 6,
      "#": 7,
      "$": 8,
      "%": 9,
      "&": 10,
      "'": 11,
      "(": 12,
      ")": 13,
      "*": 14,
      "+": 15,
      ",": 16,
      "-": 17,
      ".": 18,
      "/": 19,
      "0": 20,
      "1": 21,
      "2": 22,
      "3": 23,
      "4": 24,
      "5": 25,
      "6": 26,
      "7": 27,
      "8": 28,
      "9": 29,
      ":": 30,
      ";": 31,
      "<": 32,
      "=": 33,
      ">": 34,
      "?": 35,
      "@": 36,
      "A": 37,
      "B": 38,
      "C": 39,
      "D": 40,
      "E": 41,
      "F": 42,
      "G": 43,
      "H": 44,
      "I": 45,
      "J": 46,
      "K": 47,
      "L": 48,
      "M": 49,
      "N": 50,
      "O": 51,
      "P": 52,
      "Q": 53,
      "R": 54,
      "S": 55,
      "T": 56,
      "U": 57,
      "V": 58,
      "W": 59,
      "X": 60,
      "Y": 61,
      "Z": 62,
      "[": 63,
      "\\": 64,
      "]": 65,
      "^": 66,
      "_": 67,
      "`": 68,
      "a": 69,
      "b": 70,
      "c": 71,
      "d": 72,
      "e": 73,
      "f": 74,
      "g": 75,
      "h": 76,
      "i": 77,
      "j": 78,
      "k": 79,
      "l": 80,
      "m": 81,
      "n": 82,
      "o": 83,
      "p": 84,
      "q": 85,
      "r": 86,
      "s": 87,
      "t": 88,
      "u": 89,
      "v": 90,
      "w": 91,
      "x": 92,
      "y": 93,
      "z": 94,
      "{": 95,
      "|": 96,
      "}": 97,
      "~": 98,
      "": 99,
      "": 100,
      "¢": 101,
      "£": 102,
      "§": 103,
      "¨": 104,
      "«": 105,
      "°": 106,
      "³": 107,
      "·": 108,
      "¹": 109,
      "»": 110,
      "¼": 111,
      "½": 112,
      "¾": 113,
      "À": 114,
      "Á": 115,
      "Â": 116,
      "Ã": 117,
      "Æ": 118,
      "Ç": 119,
      "È": 120,
      "É": 121,
      "Ê": 122,
      "Ë": 123,
      "Ï": 124,
      "Ñ": 125,
      "Õ": 126,
      "Ö": 127,
      "×": 128,
      "Ü": 129,
      "ß": 130,
      "à": 131,
      "á": 132,
      "â": 133,
      "ä": 134,
      "æ": 135,
      "ç": 136,
      "è": 137,
      "é": 138,
      "ê": 139,
      "ë": 140,
      "í": 141,
      "î": 142,
      "ï": 143,
      "ñ": 144,
      "ò": 145,
      "ó": 146,
      "ô": 147,
      "ö": 148,
      "ù": 149,
      "ú": 150,
      "û": 151,
      "ü": 152,
      "ý": 153,
      "ē": 154,
      "ō": 155,
      "Œ": 156,
      "œ": 157,
      "ƒ": 158,
      "Α": 159,
      "Γ": 160,
      "Ε": 161,
      "Η": 162,
      "Κ": 163,
      "Λ": 164,
      "Μ": 165,
      "Ν": 166,
      "Π": 167,
      "Τ": 168,
      "Χ": 169,
      "ά": 170,
      "έ": 171,
      "ή": 172,
      "ί": 173,
      "α": 174,
      "β": 175,
      "γ": 176,
      "δ": 177,
      "ε": 178,
      "ζ": 179,
      "η": 180,
      "θ": 181,
      "ι": 182,
      "κ": 183,
      "λ": 184,
      "μ": 185,
      "ν": 186,
      "ξ": 187,
      "ο": 188,
      "π": 189,
      "ρ": 190,
      "ς": 191,
      "σ": 192,
      "τ": 193,
      "υ": 194,
      "φ": 195,
      "χ": 196,
      "ψ": 197,
      "ω": 198,
      "ό": 199,
      "ύ": 200,
      "ϰ": 201,
      "ו": 202,
      "ח": 203,
      "ἀ": 204,
      "ἁ": 205,
      "ἄ": 206,
      "ἅ": 207,
      "ἆ": 208,
      "Ἀ": 209,
      "ἐ": 210,
      "ἑ": 211,
      "ἒ": 212,
      "ἔ": 213,
      "ἕ": 214,
      "Ἑ": 215,
      "ἠ": 216,
      "ἡ": 217,
      "ἰ": 218,
      "ἴ": 219,
      "ἶ": 220,
      "ὀ": 221,
      "ὁ": 222,
      "ὄ": 223,
      "ὅ": 224,
      "Ὀ": 225,
      "ὐ": 226,
      "ὑ": 227,
      "ὔ": 228,
      "ὖ": 229,
      "ὗ": 230,
      "ὰ": 231,
      "ά": 232,
      "ὲ": 233,
      "έ": 234,
      "ὴ": 235,
      "ή": 236,
      "ὶ": 237,
      "ί": 238,
      "ὸ": 239,
      "ό": 240,
      "ύ": 241,
      "ώ": 242,
      "᾽": 243,
      "ῆ": 244,
      "ῇ": 245,
      "ῑ": 246,
      "ῖ": 247,
      "ῥ": 248,
      "ῦ": 249,
      "ῳ": 250,
      "ῶ": 251,
      "ῷ": 252,
      "–": 253,
      "—": 254,
      "‘": 255,
      "’": 256,
      "“": 257,
      "”": 258,
      "†": 259,
      "•": 260,
      "…": 261,
      "′": 262,
      "″": 263,
      "⁄": 264,
      "⁰": 265,
      "⁵": 266,
      "⁷": 267,
      "⁸": 268,
      "⁹": 269,
      "₀": 270,
      "₁": 271,
      "₂": 272,
      "₃": 273,
      "₄": 274,
      "₉": 275,
      "™": 276,
      "⅑": 277,
      "⅓": 278,
      "⅔": 279,
      "⅗": 280,
      "⅘": 281,
      "⅙": 282,
      "⅚": 283,
      "⅞": 284,
      "th": 285,
      "the": 286,
      "in": 287,
      "an": 288,
      "er": 289,
      "re": 290,
      "on": 291,
      "ou": 292,
      "at": 293,
      "en": 294,
      "is": 295,
      "ed": 296,
      "and": 297,
      "to": 298,
      "of": 299,
      "as": 300,
      "or": 301,
      "es": 302,
      "ing": 303,
      "it": 304,
      "ar": 305,
      "al": 306,
      "he": 307,
      "se": 308,
      "le": 309,
      "be": 310,
      "st": 311,
      "ch": 312,
      "om": 313,
      "wh": 314,
      "no": 315,
      "ad": 316,
      "ly": 317,
      "ce": 318,
      "that": 319,
      "wi": 320,
      "ion": 321,
      "ve": 322,
      "im": 323,
      "ll": 324,
      "ent": 325,
      "id": 326,
      "ld": 327,
      "ut": 328,
      "gh": 329,
      "ver": 330,
      "ow": 331,
      "for": 332,
      "me": 333,
      "was": 334,
      "ay": 335,
      "ir": 336,
      "li": 337,
      "you": 338,
      "with": 339,
      "his": 340,
      "ha": 341,
      "ct": 342,
      "ro": 343,
      "all": 344,
      "not": 345,
      "ri": 346,
      "her": 347,
      "un": 348,
      "ter": 349,
      "su": 350,
      "ther": 351,
      "de": 352,
      "ght": 353,
      "sa": 354,
      "so": 355,
      "con": 356,
      "whi": 357,
      "had": 358,
      "ke": 359,
      "ab": 360,
      "ould": 361,
      "we": 362,
      "mo": 363,
      "lo": 364,
      "are": 365,
      "ur": 366,
      "ag": 367,
      "ain": 368,
      "ne": 369,
      "sh": 370,
      "ic": 371,
      "pe": 372,
      "one": 373,
      "fe": 374,
      "which": 375,
      "by": 376,
      "ess": 377,
      "od": 378,
      "po": 379,
      "him": 380,
      "ome": 381,
      "ere": 382,
      "am": 383,
      "out": 384,
      "ac": 385,
      "us": 386,
      "but": 387,
      "have": 388,
      "my": 389,
      "our": 390,
      "man": 391,
      "nd": 392,
      "fr": 393,
      "The": 394,
      "if": 395,
      "qu": 396,
      "per": 397,
      "et": 398,
      "go": 399,
      "ex": 400,
      "ul": 401,
      "il": 402,
      "ation": 403,
      "up": 404,
      "this": 405,
      "res": 406,
      "do": 407,
      "est": 408,
      "tr": 409,
      "from": 410,
      "thing": 411,
      "now": 412,
      ".”": 413,
      "they": 414,
      "ant": 415,
      "ard": 416,
      "ind": 417,
      "she": 418,
      "ap": 419,
      "fo": 420,
      "said": 421,
      "com": 422,
      "who": 423,
      "te": 424,
      "sel": 425,
      "ous": 426,
      "very": 427,
      "ust": 428,
      "art": 429,
      "ate": 430,
      "end": 431,
      "pro": 432,
      "them": 433,
      "pl": 434,
      "ge": 435,
      "there": 436,
      "wor": 437,
      "other": 438,
      "were": 439,
      "ist": 440,
      "ity": 441,
      "ill": 442,
      "some": 443,
      "der": 444,
      "their": 445,
      "ok": 446,
      "ong": 447,
      "ca": 448,
      "co": 449,
      "own": 450,
      "any": 451,
      "would": 452,
      "pr": 453,
      ",”": 454,
      "ast": 455,
      "self": 456,
      "fa": 457,
      "way": 458,
      "ure": 459,
      "ight": 460,
      "em": 461,
      "ence": 462,
      "ound": 463,
      "ak": 464,
      "will": 465,
      "op": 466,
      "ive": 467,
      "ven": 468,
      "ough": 469,
      "ci": 470,
      "what": 471,
      "tim": 472,
      "He": 473,
      "been": 474,
      "can": 475,
      "ish": 476,
      "ra": 477,
      "reat": 478,
      "fore": 479,
      "when": 480,
      "more": 481,
      "know": 482,
      "ment": 483,
      "able": 484,
      "ig": 485,
      "ers": 486,
      "Th": 487,
      "bo": 488,
      "itt": 489,
      "la": 490,
      "--": 491,
      "Wh": 492,
      "It": 493,
      "than": 494,
      "red": 495,
      "here": 496,
      "um": 497,
      "ine": 498,
      "ck": 499,
      "af": 500,
      "its": 501,
      "But": 502,
      "pos": 503,
      "ance": 504,
      "ake": 505,
      "oun": 506,
      "ie": 507,
      "Mr": 508,
      "ide": 509,
      "ass": 510,
      "your": 511,
      "like": 512,
      "?”": 513,
      "could": 514,
      "And": 515,
      "ought": 516,
      "ble": 517,
      "gr": 518,
      "el": 519,
      "ved": 520,
      "pre": 521,
      "dis": 522,
      "pres": 523,
      "use": 524,
      "ort": 525,
      "into": 526,
      "say": 527,
      "has": 528,
      "wo": 529,
      "ho": 530,
      "ction": 531,
      "pt": 532,
      "ies": 533,
      "part": 534,
      "tain": 535,
      "ally": 536,
      "ep": 537,
      "ite": 538,
      "only": 539,
      "ber": 540,
      "ade": 541,
      "ple": 542,
      "bl": 543,
      "then": 544,
      "ans": 545,
      "ry": 546,
      "time": 547,
      "ol": 548,
      "great": 549,
      "urn": 550,
      "see": 551,
      "look": 552,
      "ach": 553,
      "ful": 554,
      "ty": 555,
      "fer": 556,
      "good": 557,
      "ves": 558,
      "day": 559,
      "ire": 560,
      "ue": 561,
      "uch": 562,
      "ink": 563,
      "over": 564,
      "ack": 565,
      "je": 566,
      "ree": 567,
      "ob": 568,
      "ose": 569,
      "men": 570,
      "ittle": 571,
      "should": 572,
      "did": 573,
      "ear": 574,
      "pp": 575,
      "ary": 576,
      "sp": 577,
      "upon": 578,
      "may": 579,
      "under": 580,
      "ice": 581,
      "such": 582,
      "most": 583,
      "hand": 584,
      "br": 585,
      "again": 586,
      "about": 587,
      "ud": 588,
      "little": 589,
      "ving": 590,
      "must": 591,
      "si": 592,
      "ever": 593,
      "where": 594,
      "age": 595,
      "how": 596,
      "cl": 597,
      "str": 598,
      "act": 599,
      "spe": 600,
      "!”": 601,
      "long": 602,
      "come": 603,
      "every": 604,
      "gl": 605,
      "fir": 606,
      "ness": 607,
      "much": 608,
      "int": 609,
      "turn": 610,
      "ions": 611,
      "ated": 612,
      "In": 613,
      "sto": 614,
      "form": 615,
      "these": 616,
      "ser": 617,
      "ise": 618,
      "read": 619,
      "coun": 620,
      "ject": 621,
      "mon": 622,
      "well": 623,
      "des": 624,
      "made": 625,
      "after": 626,
      "ace": 627,
      "less": 628,
      "two": 629,
      "off": 630,
      "ord": 631,
      "being": 632,
      "before": 633,
      "ang": 634,
      "We": 635,
      "old": 636,
      "ward": 637,
      "ot": 638,
      "never": 639,
      "nat": 640,
      "even": 641,
      "those": 642,
      "think": 643,
      "down": 644,
      "thr": 645,
      "right": 646,
      "let": 647,
      "cer": 648,
      "cause": 649,
      "first": 650,
      "bet": 651,
      "cr": 652,
      "fl": 653,
      "thought": 654,
      "ign": 655,
      "hi": 656,
      "light": 657,
      "ked": 658,
      "arm": 659,
      "ious": 660,
      "same": 661,
      "things": 662,
      "came": 663,
      "himself": 664,
      "without": 665,
      "cons": 666,
      "You": 667,
      "au": 668,
      "ey": 669,
      "new": 670,
      "might": 671,
      "seem": 672,
      "son": 673,
      "mar": 674,
      "shall": 675,
      "cess": 676,
      "went": 677,
      "ath": 678,
      "orn": 679,
      "though": 680,
      "just": 681,
      "ren": 682,
      "God": 683,
      "ave": 684,
      "ten": 685,
      "led": 686,
      "inter": 687,
      "anc": 688,
      "king": 689,
      "beg": 690,
      "sc": 691,
      "ily": 692,
      "pass": 693,
      "ried": 694,
      "du": 695,
      "word": 696,
      "iv": 697,
      "make": 698,
      "ition": 699,
      "ted": 700,
      "reas": 701,
      "call": 702,
      "There": 703,
      "ps": 704,
      "stand": 705,
      "llow": 706,
      "head": 707,
      "__": 708,
      "ame": 709,
      "life": 710,
      "air": 711,
      "She": 712,
      "get": 713,
      "too": 714,
      "dif": 715,
      "work": 716,
      "att": 717,
      "bod": 718,
      "cour": 719,
      "cas": 720,
      "iss": 721,
      "ower": 722,
      "ef": 723,
      "mind": 724,
      "ways": 725,
      "sm": 726,
      "sub": 727,
      "ations": 728,
      "ts": 729,
      "dist": 730,
      "ouse": 731,
      "nothing": 732,
      "atter": 733,
      "fect": 734,
      "put": 735,
      "appe": 736,
      "ild": 737,
      "through": 738,
      "back": 739,
      "ange": 740,
      "many": 741,
      "cont": 742,
      "don": 743,
      "les": 744,
      "..": 745,
      "ener": 746,
      "clo": 747,
      "ered": 748,
      "ev": 749,
      "ople": 750,
      "par": 751,
      "This": 752,
      "another": 753,
      "fri": 754,
      "What": 755,
      "lic": 756,
      "sen": 757,
      "present": 758,
      "away": 759,
      "found": 760,
      "tor": 761,
      "happ": 762,
      "min": 763,
      "For": 764,
      "vo": 765,
      "St": 766,
      "med": 767,
      "place": 768,
      "still": 769,
      "night": 770,
      "yet": 771,
      "tell": 772,
      "because": 773,
      "ng": 774,
      "port": 775,
      "people": 776,
      "pleas": 777,
      "ings": 778,
      "gi": 779,
      "ince": 780,
      "==": 781,
      "mer": 782,
      "try": 783,
      "last": 784,
      "wom": 785,
      "press": 786,
      "young": 787,
      "aking": 788,
      "ied": 789,
      "house": 790,
      "got": 791,
      "cept": 792,
      "ick": 793,
      "take": 794,
      "lt": 795,
      "reg": 796,
      "If": 797,
      "ft": 798,
      "always": 799,
      "ars": 800,
      "body": 801,
      "lie": 802,
      "No": 803,
      "Ch": 804,
      "ner": 805,
      "kind": 806,
      "friend": 807,
      "ened": 808,
      "ress": 809,
      "ither": 810,
      "fort": 811,
      "sur": 812,
      "eyes": 813,
      "car": 814,
      "certain": 815,
      "oc": 816,
      "ared": 817,
      "vi": 818,
      "room": 819,
      "want": 820,
      "pect": 821,
      "They": 822,
      "ip": 823,
      "ret": 824,
      "gu": 825,
      "ru": 826,
      "ph": 827,
      "while": 828,
      "set": 829,
      "Ar": 830,
      "ater": 831,
      "reason": 832,
      "ently": 833,
      "wr": 834,
      "ith": 835,
      "lect": 836,
      "world": 837,
      "face": 838,
      "acc": 839,
      "year": 840,
      "side": 841,
      "den": 842,
      "bre": 843,
      "icul": 844,
      "love": 845,
      "bro": 846,
      "ced": 847,
      "land": 848,
      "ished": 849,
      "pri": 850,
      "heart": 851,
      "comp": 852,
      "cle": 853,
      "times": 854,
      "turned": 855,
      "ER": 856,
      "nor": 857,
      "ical": 858,
      "ss": 859,
      "jo": 860,
      "comm": 861,
      "child": 862,
      "give": 863,
      "rep": 864,
      "ale": 865,
      "ull": 866,
      "That": 867,
      "far": 868,
      "add": 869,
      "gener": 870,
      "aw": 871,
      "ates": 872,
      "rem": 873,
      "ian": 874,
      "feel": 875,
      "law": 876,
      "ting": 877,
      "av": 878,
      "ning": 879,
      "saw": 880,
      "ond": 881,
      "order": 882,
      "also": 883,
      "iness": 884,
      "fin": 885,
      "ual": 886,
      "ark": 887,
      "selves": 888,
      "ait": 889,
      "point": 890,
      "door": 891,
      "oment": 892,
      "sible": 893,
      "bed": 894,
      "moment": 895,
      "three": 896,
      "find": 897,
      "rel": 898,
      "tal": 899,
      "und": 900,
      "power": 901,
      "sol": 902,
      "person": 903,
      "something": 904,
      "inst": 905,
      "ub": 906,
      "tem": 907,
      "differ": 908,
      "looked": 909,
      "iz": 910,
      "As": 911,
      "col": 912,
      "once": 913,
      "cond": 914,
      "mem": 915,
      "Mrs": 916,
      "does": 917,
      "hor": 918,
      "cap": 919,
      "vers": 920,
      "ens": 921,
      "eas": 922,
      "sou": 923,
      "ces": 924,
      "took": 925,
      "both": 926,
      "sha": 927,
      "nature": 928,
      "consid": 929,
      "unt": 930,
      "cho": 931,
      "seemed": 932,
      "whole": 933,
      "wards": 934,
      "high": 935,
      "ks": 936,
      "When": 937,
      "qui": 938,
      "vis": 939,
      "against": 940,
      "father": 941,
      "val": 942,
      "cannot": 943,
      "done": 944,
      "bit": 945,
      "sat": 946,
      "ier": 947,
      "low": 948,
      "pose": 949,
      "cur": 950,
      "ial": 951,
      "used": 952,
      "ma": 953,
      "TH": 954,
      "pa": 955,
      "better": 956,
      "ged": 957,
      "ween": 958,
      "char": 959,
      "follow": 960,
      "left": 961,
      "each": 962,
      "Then": 963,
      "answ": 964,
      "going": 965,
      "whom": 966,
      "che": 967,
      "near": 968,
      "To": 969,
      "sup": 970,
      "ff": 971,
      "seen": 972,
      "ons": 973,
      "os": 974,
      "ures": 975,
      "pur": 976,
      "quite": 977,
      "name": 978,
      "rest": 979,
      "ls": 980,
      "between": 981,
      "So": 982,
      "called": 983,
      "ready": 984,
      "hal": 985,
      "count": 986,
      "atch": 987,
      "having": 988,
      ",’": 989,
      "woman": 990,
      "wind": 991,
      "myself": 992,
      "thy": 993,
      "soon": 994,
      "heard": 995,
      "won": 996,
      "hel": 997,
      "Pro": 998,
      "matter": 999,
      "gent": 1000,
      "rew": 1001,
      "ments": 1002,
      "row": 1003,
      "tak": 1004,
      "necess": 1005,
      "bu": 1006,
      "An": 1007,
      "ile": 1008,
      "round": 1009,
      "stood": 1010,
      "sure": 1011,
      "sil": 1012,
      "hold": 1013,
      "inde": 1014,
      "vent": 1015,
      "mother": 1016,
      "raw": 1017,
      "gether": 1018,
      "together": 1019,
      "quest": 1020,
      "lied": 1021,
      "hu": 1022,
      "cei": 1023,
      "belie": 1024,
      "dear": 1025,
      "mean": 1026,
      "among": 1027,
      "At": 1028,
      "How": 1029,
      "therefore": 1030,
      "peri": 1031,
      "aster": 1032,
      "lar": 1033,
      "understand": 1034,
      "ited": 1035,
      "spo": 1036,
      "natur": 1037,
      "dou": 1038,
      "ped": 1039,
      "words": 1040,
      "hands": 1041,
      "II": 1042,
      "lad": 1043,
      "ute": 1044,
      "tru": 1045,
      "hard": 1046,
      "Well": 1047,
      "possible": 1048,
      "hether": 1049,
      "asked": 1050,
      "lay": 1051,
      "dr": 1052,
      "cor": 1053,
      "themselves": 1054,
      "ins": 1055,
      "serv": 1056,
      "CH": 1057,
      "ys": 1058,
      "ash": 1059,
      "En": 1060,
      "care": 1061,
      "ating": 1062,
      "object": 1063,
      ".’": 1064,
      "His": 1065,
      "half": 1066,
      "told": 1067,
      "Mar": 1068,
      "ised": 1069,
      "sim": 1070,
      "enough": 1071,
      "ank": 1072,
      "course": 1073,
      "Yes": 1074,
      "stru": 1075,
      "rather": 1076,
      "wal": 1077,
      "few": 1078,
      "plain": 1079,
      "thou": 1080,
      "began": 1081,
      "haps": 1082,
      "sy": 1083,
      "hear": 1084,
      "years": 1085,
      "cu": 1086,
      "ended": 1087,
      "fam": 1088,
      "cri": 1089,
      "tri": 1090,
      "poor": 1091,
      "felt": 1092,
      "home": 1093,
      "hour": 1094,
      "either": 1095,
      "cover": 1096,
      "Oh": 1097,
      "fre": 1098,
      "Now": 1099,
      "small": 1100,
      "____": 1101,
      "On": 1102,
      "anything": 1103,
      "itself": 1104,
      "ove": 1105,
      "ather": 1106,
      "Be": 1107,
      "Fr": 1108,
      "My": 1109,
      "ister": 1110,
      "state": 1111,
      "says": 1112,
      "keep": 1113,
      "since": 1114,
      "contin": 1115,
      "country": 1116,
      "sent": 1117,
      "exist": 1118,
      "ail": 1119,
      "almost": 1120,
      "conf": 1121,
      "spir": 1122,
      "prin": 1123,
      "gentle": 1124,
      "speak": 1125,
      "ents": 1126,
      "aut": 1127,
      "posed": 1128,
      "ities": 1129,
      "fact": 1130,
      "ship": 1131,
      "que": 1132,
      "ext": 1133,
      "ult": 1134,
      "true": 1135,
      "fall": 1136,
      "sk": 1137,
      "adv": 1138,
      "knew": 1139,
      "jud": 1140,
      "case": 1141,
      "thus": 1142,
      "sing": 1143,
      "ket": 1144,
      "leg": 1145,
      "consider": 1146,
      "itu": 1147,
      "soul": 1148,
      "als": 1149,
      "ird": 1150,
      "others": 1151,
      "xt": 1152,
      "looking": 1153,
      "however": 1154,
      "interest": 1155,
      "Jo": 1156,
      "ctions": 1157,
      "hon": 1158,
      "TER": 1159,
      "eng": 1160,
      "ances": 1161,
      "wish": 1162,
      "sir": 1163,
      "bar": 1164,
      "mis": 1165,
      "uten": 1166,
      "full": 1167,
      "ia": 1168,
      "real": 1169,
      "cent": 1170,
      "cy": 1171,
      "ety": 1172,
      "ility": 1173,
      "manner": 1174,
      "cried": 1175,
      "ient": 1176,
      "creat": 1177,
      "remain": 1178,
      "fully": 1179,
      "oney": 1180,
      "taken": 1181,
      "Miss": 1182,
      "num": 1183,
      "bus": 1184,
      "ceed": 1185,
      "show": 1186,
      "tow": 1187,
      "herself": 1188,
      "four": 1189,
      "often": 1190,
      "known": 1191,
      "AP": 1192,
      "gir": 1193,
      "====": 1194,
      "produ": 1195,
      "given": 1196,
      "ately": 1197,
      "ution": 1198,
      "ants": 1199,
      "open": 1200,
      "proper": 1201,
      "subject": 1202,
      "bes": 1203,
      "ugh": 1204,
      "berg": 1205,
      "human": 1206,
      "ined": 1207,
      "morn": 1208,
      "doub": 1209,
      "ors": 1210,
      "ible": 1211,
      "ling": 1212,
      "De": 1213,
      "arn": 1214,
      "soci": 1215,
      "ye": 1216,
      "dire": 1217,
      "fair": 1218,
      "sort": 1219,
      "ably": 1220,
      "app": 1221,
      "ross": 1222,
      "sever": 1223,
      "alone": 1224,
      "need": 1225,
      "ask": 1226,
      "sho": 1227,
      "ched": 1228,
      "voice": 1229,
      "till": 1230,
      "gra": 1231,
      "ory": 1232,
      "Pr": 1233,
      "equ": 1234,
      "cal": 1235,
      "perhaps": 1236,
      "contr": 1237,
      "ident": 1238,
      "ken": 1239,
      "best": 1240,
      "draw": 1241,
      "morning": 1242,
      "aces": 1243,
      "utenberg": 1244,
      "whether": 1245,
      "knowled": 1246,
      "play": 1247,
      "gave": 1248,
      "ides": 1249,
      "water": 1250,
      "sum": 1251,
      "ses": 1252,
      "whose": 1253,
      "princi": 1254,
      "pret": 1255,
      "beaut": 1256,
      "above": 1257,
      "ages": 1258,
      "cir": 1259,
      "dark": 1260,
      "idea": 1261,
      "ceived": 1262,
      "aven": 1263,
      "sle": 1264,
      "CHAP": 1265,
      "ref": 1266,
      "days": 1267,
      "oud": 1268,
      "express": 1269,
      "indeed": 1270,
      "particul": 1271,
      "money": 1272,
      "All": 1273,
      "CHAPTER": 1274,
      "sun": 1275,
      "ene": 1276,
      "cted": 1277,
      "pain": 1278,
      "appear": 1279,
      ",—": 1280,
      "brought": 1281,
      "ield": 1282,
      "sense": 1283,
      "accord": 1284,
      "vol": 1285,
      "stre": 1286,
      "different": 1287,
      "ste": 1288,
      "believe": 1289,
      "mor": 1290,
      "inc": 1291,
      "),": 1292,
      "towards": 1293,
      "wise": 1294,
      "position": 1295,
      "hope": 1296,
      "Engl": 1297,
      "Why": 1298,
      "replied": 1299,
      "gover": 1300,
      "ows": 1301,
      "pped": 1302,
      "laugh": 1303,
      "anger": 1304,
      "least": 1305,
      "sign": 1306,
      "ann": 1307,
      "div": 1308,
      "perfect": 1309,
      "run": 1310,
      "effect": 1311,
      "respect": 1312,
      "common": 1313,
      "sec": 1314,
      "agn": 1315,
      "adm": 1316,
      "large": 1317,
      "di": 1318,
      "THE": 1319,
      "Do": 1320,
      "death": 1321,
      "emp": 1322,
      "prom": 1323,
      "strong": 1324,
      "natural": 1325,
      "swe": 1326,
      "gone": 1327,
      "ery": 1328,
      "means": 1329,
      "exc": 1330,
      "Project": 1331,
      "live": 1332,
      "general": 1333,
      "particular": 1334,
      "ches": 1335,
      "joy": 1336,
      "ided": 1337,
      "Gutenberg": 1338,
      "truth": 1339,
      "white": 1340,
      "irt": 1341,
      "igh": 1342,
      "ms": 1343,
      "Se": 1344,
      "une": 1345,
      "pen": 1346,
      "continu": 1347,
      "gn": 1348,
      "within": 1349,
      "ublic": 1350,
      "coming": 1351,
      "prof": 1352,
      "fire": 1353,
      "ison": 1354,
      "hind": 1355,
      "member": 1356,
      "knowledge": 1357,
      "thor": 1358,
      "mere": 1359,
      "expect": 1360,
      "ground": 1361,
      "gg": 1362,
      "passed": 1363,
      "az": 1364,
      "wood": 1365,
      "master": 1366,
      "doubt": 1367,
      "else": 1368,
      "regard": 1369,
      "question": 1370,
      "suc": 1371,
      "fi": 1372,
      "AN": 1373,
      "pi": 1374,
      "free": 1375,
      "mot": 1376,
      "letter": 1377,
      "war": 1378,
      "wonder": 1379,
      "uring": 1380,
      "really": 1381,
      ".\"": 1382,
      "medi": 1383,
      "anim": 1384,
      "Al": 1385,
      "next": 1386,
      "ative": 1387,
      "IN": 1388,
      "Un": 1389,
      "second": 1390,
      "already": 1391,
      "step": 1392,
      "along": 1393,
      "utter": 1394,
      "undred": 1395,
      "return": 1396,
      "tel": 1397,
      "ON": 1398,
      "blo": 1399,
      "earth": 1400,
      "wall": 1401,
      "vie": 1402,
      "book": 1403,
      "dom": 1404,
      "why": 1405,
      "vil": 1406,
      "hundred": 1407,
      "fear": 1408,
      "Of": 1409,
      "black": 1410,
      "sess": 1411,
      "tern": 1412,
      "ris": 1413,
      "sound": 1414,
      "aris": 1415,
      "help": 1416,
      "according": 1417,
      "var": 1418,
      "answer": 1419,
      "obser": 1420,
      "happy": 1421,
      "short": 1422,
      "clear": 1423,
      "thee": 1424,
      "tory": 1425,
      "diff": 1426,
      "wait": 1427,
      "ific": 1428,
      "Art": 1429,
      "dead": 1430,
      "dest": 1431,
      "possess": 1432,
      "sometimes": 1433,
      "boy": 1434,
      "everything": 1435,
      "ement": 1436,
      "view": 1437,
      "band": 1438,
      "dden": 1439,
      "sequ": 1440,
      "uc": 1441,
      "ont": 1442,
      "leave": 1443,
      "imp": 1444,
      "ief": 1445,
      "imag": 1446,
      "necessary": 1447,
      "govern": 1448,
      "girl": 1449,
      "arch": 1450,
      "charact": 1451,
      "stri": 1452,
      "speci": 1453,
      "rist": 1454,
      "occas": 1455,
      "begin": 1456,
      "mal": 1457,
      "bey": 1458,
      "held": 1459,
      "const": 1460,
      "Go": 1461,
      "ality": 1462,
      "Is": 1463,
      "gre": 1464,
      "ones": 1465,
      "With": 1466,
      "ush": 1467,
      "appro": 1468,
      "feet": 1469,
      "returned": 1470,
      "lit": 1471,
      "change": 1472,
      "comes": 1473,
      "cked": 1474,
      "sudden": 1475,
      "cious": 1476,
      "appeared": 1477,
      "making": 1478,
      "trans": 1479,
      "road": 1480,
      "urther": 1481,
      "sed": 1482,
      "watch": 1483,
      "owed": 1484,
      "six": 1485,
      "aint": 1486,
      "opin": 1487,
      "itude": 1488,
      "ired": 1489,
      "ese": 1490,
      "children": 1491,
      "ousand": 1492,
      "ane": 1493,
      "fellow": 1494,
      "arri": 1495,
      "five": 1496,
      "except": 1497,
      "concer": 1498,
      "town": 1499,
      "Christ": 1500,
      "mid": 1501,
      "exam": 1502,
      "ured": 1503,
      "thousand": 1504,
      "fast": 1505,
      "tempt": 1506,
      "reach": 1507,
      "wife": 1508,
      "iled": 1509,
      "sor": 1510,
      "several": 1511,
      "remember": 1512,
      "ster": 1513,
      "brother": 1514,
      "ribut": 1515,
      "become": 1516,
      "One": 1517,
      "friends": 1518,
      "akes": 1519,
      "ug": 1520,
      "dro": 1521,
      "ular": 1522,
      "bear": 1523,
      "lig": 1524,
      "aced": 1525,
      "evening": 1526,
      "ination": 1527,
      "Let": 1528,
      "ream": 1529,
      "enter": 1530,
      "business": 1531,
      "eye": 1532,
      "rid": 1533,
      "move": 1534,
      "circ": 1535,
      "iful": 1536,
      "ices": 1537,
      "cut": 1538,
      "Ob": 1539,
      "EN": 1540,
      "ceive": 1541,
      "comple": 1542,
      "public": 1543,
      "sea": 1544,
      "table": 1545,
      "miss": 1546,
      "difficul": 1547,
      "dec": 1548,
      "pend": 1549,
      "itted": 1550,
      "bad": 1551,
      "acqu": 1552,
      "tom": 1553,
      "number": 1554,
      "greater": 1555,
      "list": 1556,
      "inct": 1557,
      "spirit": 1558,
      "amp": 1559,
      "sight": 1560,
      "pleasure": 1561,
      "family": 1562,
      "hilo": 1563,
      "ung": 1564,
      "bur": 1565,
      "mist": 1566,
      "arms": 1567,
      "gy": 1568,
      "AR": 1569,
      "fine": 1570,
      "flo": 1571,
      "chief": 1572,
      "laim": 1573,
      "18": 1574,
      "behind": 1575,
      "ries": 1576,
      "street": 1577,
      "nam": 1578,
      "ax": 1579,
      "field": 1580,
      "cus": 1581,
      "account": 1582,
      "rup": 1583,
      "satis": 1584,
      "foot": 1585,
      "spr": 1586,
      "seems": 1587,
      "usu": 1588,
      "ieur": 1589,
      "aid": 1590,
      "prov": 1591,
      "women": 1592,
      "owing": 1593,
      "deep": 1594,
      "until": 1595,
      "ton": 1596,
      "corn": 1597,
      "habit": 1598,
      "trou": 1599,
      "Lord": 1600,
      "bring": 1601,
      "lady": 1602,
      "hiloso": 1603,
      "ying": 1604,
      "hur": 1605,
      "Ro": 1606,
      "meet": 1607,
      "cup": 1608,
      "Ad": 1609,
      "cks": 1610,
      "prob": 1611,
      "ences": 1612,
      "close": 1613,
      "forth": 1614,
      "lost": 1615,
      "fell": 1616,
      "ran": 1617,
      "pay": 1618,
      "Her": 1619,
      "sister": 1620,
      "ase": 1621,
      "pet": 1622,
      "neither": 1623,
      "Con": 1624,
      "lab": 1625,
      "covered": 1626,
      "ffer": 1627,
      "urch": 1628,
      "dri": 1629,
      "hus": 1630,
      "outh": 1631,
      "horse": 1632,
      "suff": 1633,
      "lies": 1634,
      "evil": 1635,
      "illed": 1636,
      "rit": 1637,
      "tou": 1638,
      "cop": 1639,
      "met": 1640,
      "mine": 1641,
      "remar": 1642,
      "uni": 1643,
      "itting": 1644,
      "experi": 1645,
      "talk": 1646,
      "supp": 1647,
      "Not": 1648,
      "ius": 1649,
      ",\"": 1650,
      "belong": 1651,
      "ention": 1652,
      "ually": 1653,
      "answered": 1654,
      "cold": 1655,
      "longer": 1656,
      "dem": 1657,
      "kept": 1658,
      "ending": 1659,
      "Em": 1660,
      "past": 1661,
      "ples": 1662,
      "Bo": 1663,
      "learn": 1664,
      "occasion": 1665,
      "idence": 1666,
      "By": 1667,
      "Tom": 1668,
      "character": 1669,
      "main": 1670,
      "liber": 1671,
      "ats": 1672,
      "wild": 1673,
      "saying": 1674,
      "dress": 1675,
      "heaven": 1676,
      "strange": 1677,
      "!’": 1678,
      "sleep": 1679,
      "hair": 1680,
      "mil": 1681,
      "import": 1682,
      "deter": 1683,
      "flu": 1684,
      "ours": 1685,
      "tellect": 1686,
      "former": 1687,
      "feeling": 1688,
      "offic": 1689,
      "virt": 1690,
      "gold": 1691,
      "lim": 1692,
      "immedi": 1693,
      "suffer": 1694,
      "?’": 1695,
      "ham": 1696,
      "hum": 1697,
      "00": 1698,
      "gentleman": 1699,
      "OF": 1700,
      "consequ": 1701,
      "TI": 1702,
      "Mo": 1703,
      "male": 1704,
      "ley": 1705,
      "cell": 1706,
      "Gr": 1707,
      "aren": 1708,
      "sem": 1709,
      "ghter": 1710,
      "itch": 1711,
      "suppose": 1712,
      "ze": 1713,
      "riage": 1714,
      "rious": 1715,
      "shad": 1716,
      "tre": 1717,
      "ich": 1718,
      "Ah": 1719,
      "ordin": 1720,
      "start": 1721,
      "taking": 1722,
      "xed": 1723,
      "loy": 1724,
      "aged": 1725,
      "Com": 1726,
      "itions": 1727,
      "wenty": 1728,
      "ah": 1729,
      "bly": 1730,
      "moun": 1731,
      "Artagn": 1732,
      "Artagnan": 1733,
      "intellect": 1734,
      "arr": 1735,
      "ES": 1736,
      "Dor": 1737,
      "Some": 1738,
      "pie": 1739,
      "rench": 1740,
      "circum": 1741,
      "fav": 1742,
      "author": 1743,
      "cast": 1744,
      "gain": 1745,
      "deal": 1746,
      "window": 1747,
      "incl": 1748,
      "Therefore": 1749,
      "Here": 1750,
      "ele": 1751,
      "pal": 1752,
      "owers": 1753,
      "ger": 1754,
      "formed": 1755,
      "lu": 1756,
      "thos": 1757,
      "during": 1758,
      "chang": 1759,
      "husband": 1760,
      "tend": 1761,
      "quiet": 1762,
      "standing": 1763,
      "ron": 1764,
      "pat": 1765,
      "moved": 1766,
      "action": 1767,
      "received": 1768,
      "ines": 1769,
      "rap": 1770,
      "quick": 1771,
      "bird": 1772,
      "ideas": 1773,
      "ned": 1774,
      "alth": 1775,
      "yes": 1776,
      "OR": 1777,
      "por": 1778,
      "twenty": 1779,
      "Where": 1780,
      "surpr": 1781,
      "fig": 1782,
      "liar": 1783,
      "break": 1784,
      "har": 1785,
      "government": 1786,
      "antly": 1787,
      "beautiful": 1788,
      "quar": 1789,
      "adame": 1790,
      "opinion": 1791,
      "dut": 1792,
      "command": 1793,
      "anci": 1794,
      "Af": 1795,
      "These": 1796,
      "works": 1797,
      "ivid": 1798,
      "pretty": 1799,
      "Amer": 1800,
      "mus": 1801,
      "hath": 1802,
      "Americ": 1803,
      "cre": 1804,
      "became": 1805,
      "continued": 1806,
      "god": 1807,
      "tained": 1808,
      "din": 1809,
      "blood": 1810,
      "Nat": 1811,
      "philoso": 1812,
      "cogn": 1813,
      "Obj": 1814,
      "unto": 1815,
      "yourself": 1816,
      "post": 1817,
      "Mon": 1818,
      "tle": 1819,
      "laws": 1820,
      "French": 1821,
      "worth": 1822,
      "proceed": 1823,
      "Re": 1824,
      "lea": 1825,
      "Pe": 1826,
      "unity": 1827,
      "spect": 1828,
      "chool": 1829,
      "pas": 1830,
      "ards": 1831,
      "dle": 1832,
      "roy": 1833,
      "dream": 1834,
      "ek": 1835,
      "ford": 1836,
      "pers": 1837,
      "ctor": 1838,
      "gar": 1839,
      "ady": 1840,
      "stud": 1841,
      "ingly": 1842,
      "bled": 1843,
      "na": 1844,
      "lead": 1845,
      "States": 1846,
      "prison": 1847,
      "quired": 1848,
      "bri": 1849,
      "ni": 1850,
      "inal": 1851,
      "ized": 1852,
      "added": 1853,
      "cry": 1854,
      "After": 1855,
      "eth": 1856,
      "Will": 1857,
      "comfort": 1858,
      "easy": 1859,
      "agree": 1860,
      "ew": 1861,
      "suffic": 1862,
      "circumst": 1863,
      "resu": 1864,
      "makes": 1865,
      "species": 1866,
      "uses": 1867,
      "company": 1868,
      "aughter": 1869,
      "scar": 1870,
      "ges": 1871,
      "purpose": 1872,
      "delight": 1873,
      "danger": 1874,
      "atever": 1875,
      "English": 1876,
      "mur": 1877,
      "success": 1878,
      "wanted": 1879,
      "fac": 1880,
      "Po": 1881,
      "compan": 1882,
      "glad": 1883,
      "gate": 1884,
      "orig": 1885,
      "========": 1886,
      "Nor": 1887,
      "daughter": 1888,
      "smo": 1889,
      "ime": 1890,
      "Tr": 1891,
      "entire": 1892,
      "desire": 1893,
      "ury": 1894,
      "around": 1895,
      "lying": 1896,
      "bound": 1897,
      "hn": 1898,
      "seeing": 1899,
      "ths": 1900,
      "offer": 1901,
      "firm": 1902,
      "contrary": 1903,
      "school": 1904,
      "advant": 1905,
      "represent": 1906,
      "lled": 1907,
      "oft": 1908,
      "iously": 1909,
      "employ": 1910,
      "ney": 1911,
      "pray": 1912,
      "force": 1913,
      "doing": 1914,
      "society": 1915,
      "ror": 1916,
      "stra": 1917,
      "gard": 1918,
      "utes": 1919,
      "...": 1920,
      "ancy": 1921,
      "portion": 1922,
      "parts": 1923,
      "grand": 1924,
      "justice": 1925,
      "fection": 1926,
      "rich": 1927,
      "Who": 1928,
      "beyond": 1929,
      "pract": 1930,
      "sold": 1931,
      "cross": 1932,
      "XX": 1933,
      "stone": 1934,
      "Le": 1935,
      "iment": 1936,
      "Sir": 1937,
      "existence": 1938,
      "Co": 1939,
      "certainly": 1940,
      "sal": 1941,
      "ago": 1942,
      "determin": 1943,
      "wel": 1944,
      "dog": 1945,
      "bers": 1946,
      "pon": 1947,
      "tra": 1948,
      "Paris": 1949,
      "inv": 1950,
      "thoughts": 1951,
      "rend": 1952,
      "motion": 1953,
      "ians": 1954,
      "subst": 1955,
      "repe": 1956,
      "thinking": 1957,
      "resol": 1958,
      "followed": 1959,
      "stay": 1960,
      "carry": 1961,
      "spoke": 1962,
      "none": 1963,
      "living": 1964,
      "line": 1965,
      "chair": 1966,
      "suddenly": 1967,
      "sweet": 1968,
      "preh": 1969,
      "vel": 1970,
      "impossible": 1971,
      "faith": 1972,
      "Mons": 1973,
      "trust": 1974,
      "entered": 1975,
      "sit": 1976,
      "stair": 1977,
      "Or": 1978,
      "stren": 1979,
      "ament": 1980,
      "opened": 1981,
      "usion": 1982,
      "experience": 1983,
      "acy": 1984,
      "conscious": 1985,
      "________": 1986,
      "King": 1987,
      "plan": 1988,
      "Monsieur": 1989,
      "further": 1990,
      "top": 1991,
      "knows": 1992,
      "condition": 1993,
      "LI": 1994,
      "John": 1995,
      "fortune": 1996,
      "oured": 1997,
      "terri": 1998,
      "mention": 1999,
      "abl": 2000,
      "ount": 2001,
      "city": 2002,
      "sl": 2003,
      "individ": 2004,
      "streng": 2005,
      "From": 2006,
      "fif": 2007,
      "neigh": 2008,
      "path": 2009,
      "ism": 2010,
      "happiness": 2011,
      "tm": 2012,
      "LE": 2013,
      "ience": 2014,
      "lat": 2015,
      "Thus": 2016,
      "fal": 2017,
      "carried": 2018,
      "although": 2019,
      "ception": 2020,
      "ring": 2021,
      "gen": 2022,
      "bot": 2023,
      "warm": 2024,
      "van": 2025,
      "rope": 2026,
      "ordinary": 2027,
      "wrong": 2028,
      "secret": 2029,
      "usual": 2030,
      "increas": 2031,
      "passion": 2032,
      "ues": 2033,
      "ben": 2034,
      "smile": 2035,
      "aring": 2036,
      "cience": 2037,
      "neighb": 2038,
      "Me": 2039,
      "ert": 2040,
      "sex": 2041,
      "individual": 2042,
      "mouth": 2043,
      "slow": 2044,
      "ists": 2045,
      "gro": 2046,
      "direct": 2047,
      "immediately": 2048,
      "influ": 2049,
      "dev": 2050,
      "rose": 2051,
      "separ": 2052,
      "writ": 2053,
      "impress": 2054,
      "sin": 2055,
      "sla": 2056,
      "walked": 2057,
      "simple": 2058,
      "decl": 2059,
      "hardly": 2060,
      "Mary": 2061,
      "hast": 2062,
      "weak": 2063,
      "ified": 2064,
      "understood": 2065,
      "def": 2066,
      "bright": 2067,
      "laid": 2068,
      "latter": 2069,
      "fresh": 2070,
      "court": 2071,
      "whatever": 2072,
      "hours": 2073,
      "State": 2074,
      "lord": 2075,
      "merely": 2076,
      "angu": 2077,
      "cul": 2078,
      "tains": 2079,
      "....": 2080,
      "liver": 2081,
      "conne": 2082,
      "approach": 2083,
      "ters": 2084,
      "didn": 2085,
      "race": 2086,
      "complete": 2087,
      "concl": 2088,
      "fut": 2089,
      "avy": 2090,
      "log": 2091,
      "relation": 2092,
      "peace": 2093,
      "iling": 2094,
      "espe": 2095,
      "loved": 2096,
      "Thou": 2097,
      "late": 2098,
      "enjoy": 2099,
      "convers": 2100,
      "Sp": 2101,
      "trees": 2102,
      "nearly": 2103,
      "beginning": 2104,
      "speaking": 2105,
      "ening": 2106,
      "bility": 2107,
      "lice": 2108,
      "quire": 2109,
      "expected": 2110,
      "Don": 2111,
      "ler": 2112,
      "Ex": 2113,
      "ging": 2114,
      "viol": 2115,
      "forward": 2116,
      "atic": 2117,
      "lection": 2118,
      "explain": 2119,
      "Every": 2120,
      "pher": 2121,
      "objects": 2122,
      "ends": 2123,
      "Rep": 2124,
      "Come": 2125,
      "elect": 2126,
      "crow": 2127,
      "polit": 2128,
      "distance": 2129,
      "sole": 2130,
      "anced": 2131,
      "cred": 2132,
      "placed": 2133,
      "fraid": 2134,
      "observed": 2135,
      "aud": 2136,
      "ov": 2137,
      "grace": 2138,
      "glass": 2139,
      "absol": 2140,
      "finite": 2141,
      "meas": 2142,
      "hat": 2143,
      "tried": 2144,
      "England": 2145,
      "itten": 2146,
      "ishment": 2147,
      "Cha": 2148,
      "afraid": 2149,
      "ously": 2150,
      "Per": 2151,
      "guard": 2152,
      "attention": 2153,
      "bell": 2154,
      "principle": 2155,
      "oper": 2156,
      "tail": 2157,
      "ency": 2158,
      "org": 2159,
      "males": 2160,
      "eight": 2161,
      "exp": 2162,
      "getting": 2163,
      "hill": 2164,
      "Madame": 2165,
      "ike": 2166,
      "considered": 2167,
      "Ind": 2168,
      "Cap": 2169,
      "chance": 2170,
      "arily": 2171,
      "III": 2172,
      "ii": 2173,
      "silence": 2174,
      "hood": 2175,
      "fle": 2176,
      "thes": 2177,
      "lived": 2178,
      "agre": 2179,
      "RE": 2180,
      "leng": 2181,
      "appoint": 2182,
      "safe": 2183,
      "remained": 2184,
      "ased": 2185,
      "descri": 2186,
      "easily": 2187,
      "die": 2188,
      "OU": 2189,
      "gree": 2190,
      "IS": 2191,
      "desp": 2192,
      "nation": 2193,
      "nest": 2194,
      "happened": 2195,
      "obli": 2196,
      "persons": 2197,
      "prove": 2198,
      "walk": 2199,
      "pict": 2200,
      "hop": 2201,
      "affair": 2202,
      "giving": 2203,
      "third": 2204,
      "establ": 2205,
      "teen": 2206,
      "exact": 2207,
      "occup": 2208,
      "anx": 2209,
      "honour": 2210,
      "front": 2211,
      "understanding": 2212,
      "pleasant": 2213,
      "priv": 2214,
      "strength": 2215,
      "Qu": 2216,
      "ny": 2217,
      "difficult": 2218,
      "bs": 2219,
      "treat": 2220,
      "minutes": 2221,
      "glo": 2222,
      "ively": 2223,
      "ais": 2224,
      "tellig": 2225,
      "absolute": 2226,
      "stopped": 2227,
      "Val": 2228,
      "cket": 2229,
      "clock": 2230,
      "equal": 2231,
      "especi": 2232,
      "fing": 2233,
      "bless": 2234,
      "pun": 2235,
      "meant": 2236,
      "difference": 2237,
      "creature": 2238,
      "wit": 2239,
      "pot": 2240,
      "bling": 2241,
      "trave": 2242,
      "terms": 2243,
      "turning": 2244,
      "drink": 2245,
      "wa": 2246,
      "condu": 2247,
      "rent": 2248,
      "attle": 2249,
      "mad": 2250,
      "ference": 2251,
      "advantage": 2252,
      "vill": 2253,
      "drew": 2254,
      "note": 2255,
      "Ho": 2256,
      "ead": 2257,
      "please": 2258,
      "distinct": 2259,
      "church": 2260,
      "ained": 2261,
      "lly": 2262,
      "beauty": 2263,
      "future": 2264,
      "hy": 2265,
      "pursu": 2266,
      "intellig": 2267,
      "cord": 2268,
      "produce": 2269,
      "appearance": 2270,
      ".)": 2271,
      "fied": 2272,
      "frequ": 2273,
      "dread": 2274,
      "across": 2275,
      "possi": 2276,
      "gri": 2277,
      "Eu": 2278,
      "Lu": 2279,
      "bank": 2280,
      "lips": 2281,
      "class": 2282,
      "scarce": 2283,
      "wine": 2284,
      "perfectly": 2285,
      "demand": 2286,
      "trem": 2287,
      "fool": 2288,
      "expression": 2289,
      "ught": 2290,
      "Good": 2291,
      "pu": 2292,
      "ech": 2293,
      "trouble": 2294,
      "ering": 2295,
      "duty": 2296,
      "instead": 2297,
      "Him": 2298,
      "phe": 2299,
      "pure": 2300,
      "lower": 2301,
      "service": 2302,
      "tro": 2303,
      "big": 2304,
      "ining": 2305,
      "early": 2306,
      "places": 2307,
      "ense": 2308,
      "thir": 2309,
      "liz": 2310,
      "single": 2311,
      "labour": 2312,
      "Prince": 2313,
      "fright": 2314,
      ",--": 2315,
      "burn": 2316,
      "itation": 2317,
      "whis": 2318,
      "address": 2319,
      "test": 2320,
      "vari": 2321,
      "Char": 2322,
      "fat": 2323,
      "itution": 2324,
      "depend": 2325,
      "especially": 2326,
      "verse": 2327,
      "fortun": 2328,
      "virtue": 2329,
      "eat": 2330,
      "paper": 2331,
      "aunt": 2332,
      "mort": 2333,
      "ternal": 2334,
      "touch": 2335,
      "following": 2336,
      "afterwards": 2337,
      "occur": 2338,
      "judge": 2339,
      "length": 2340,
      "garden": 2341,
      "broken": 2342,
      "dinner": 2343,
      "struck": 2344,
      "rupt": 2345,
      "party": 2346,
      "grow": 2347,
      "written": 2348,
      "generally": 2349,
      "relig": 2350,
      "non": 2351,
      "paid": 2352,
      "corner": 2353,
      "story": 2354,
      "sage": 2355,
      "circumstances": 2356,
      "SE": 2357,
      "simp": 2358,
      "ics": 2359,
      "dim": 2360,
      "recogn": 2361,
      "born": 2362,
      "support": 2363,
      ").": 2364,
      "ingu": 2365,
      "tears": 2366,
      "tree": 2367,
      "degree": 2368,
      "remark": 2369,
      "sail": 2370,
      "sym": 2371,
      "Pier": 2372,
      "Mor": 2373,
      "horses": 2374,
      "arent": 2375,
      "ourselves": 2376,
      "sitting": 2377,
      "len": 2378,
      "unless": 2379,
      "influence": 2380,
      "accept": 2381,
      "gment": 2382,
      "host": 2383,
      "boat": 2384,
      "fit": 2385,
      "visit": 2386,
      "quir": 2387,
      "entirely": 2388,
      ".,": 2389,
      "instru": 2390,
      "super": 2391,
      "Europe": 2392,
      "Father": 2393,
      "iers": 2394,
      "jest": 2395,
      "erc": 2396,
      "divine": 2397,
      "spring": 2398,
      "iron": 2399,
      "authority": 2400,
      "kne": 2401,
      "tors": 2402,
      "jour": 2403,
      "slight": 2404,
      "ital": 2405,
      "presence": 2406,
      "attempt": 2407,
      "stem": 2408,
      "Je": 2409,
      "excell": 2410,
      "mons": 2411,
      "avo": 2412,
      "Ed": 2413,
      "tone": 2414,
      "moder": 2415,
      "laimed": 2416,
      "supposed": 2417,
      "distingu": 2418,
      "soft": 2419,
      "crowd": 2420,
      "aded": 2421,
      "hall": 2422,
      "green": 2423,
      "raised": 2424,
      "piece": 2425,
      "iam": 2426,
      "fixed": 2427,
      "copy": 2428,
      "pter": 2429,
      "history": 2430,
      "board": 2431,
      "Pierre": 2432,
      "forms": 2433,
      "pond": 2434,
      "morrow": 2435,
      "probably": 2436,
      "pale": 2437,
      "conce": 2438,
      "steps": 2439,
      "mir": 2440,
      "culiar": 2441,
      "ior": 2442,
      "Christian": 2443,
      "proportion": 2444,
      "sad": 2445,
      "cases": 2446,
      "exe": 2447,
      "mater": 2448,
      "peculiar": 2449,
      "Ben": 2450,
      "mission": 2451,
      "lling": 2452,
      "wished": 2453,
      "bon": 2454,
      "prev": 2455,
      "figure": 2456,
      "ration": 2457,
      "reached": 2458,
      "seas": 2459,
      "ability": 2460,
      "Lo": 2461,
      "ives": 2462,
      "allow": 2463,
      "devil": 2464,
      "bra": 2465,
      "assu": 2466,
      "tract": 2467,
      "grave": 2468,
      "uck": 2469,
      "ming": 2470,
      "changed": 2471,
      "mag": 2472,
      "----": 2473,
      "heavy": 2474,
      "AL": 2475,
      "trad": 2476,
      "stairs": 2477,
      "false": 2478,
      "lot": 2479,
      "ising": 2480,
      "teach": 2481,
      "birds": 2482,
      "forgot": 2483,
      "content": 2484,
      "ically": 2485,
      "Athos": 2486,
      "greatest": 2487,
      "dy": 2488,
      "Rom": 2489,
      "sake": 2490,
      "New": 2491,
      "ishing": 2492,
      "preser": 2493,
      "Anne": 2494,
      "conversation": 2495,
      "anny": 2496,
      "arrow": 2497,
      "kes": 2498,
      "fun": 2499,
      "wis": 2500,
      "tax": 2501,
      "wound": 2502,
      "ignor": 2503,
      "prote": 2504,
      "filled": 2505,
      "alt": 2506,
      "depart": 2507,
      "poet": 2508,
      "lin": 2509,
      "langu": 2510,
      "iter": 2511,
      "shi": 2512,
      "phy": 2513,
      "bodies": 2514,
      "prevent": 2515,
      "deser": 2516,
      "ilt": 2517,
      "receive": 2518,
      "situ": 2519,
      "minute": 2520,
      "Jud": 2521,
      "causes": 2522,
      "favour": 2523,
      "noon": 2524,
      "likely": 2525,
      "talking": 2526,
      "build": 2527,
      "Por": 2528,
      "blue": 2529,
      "seven": 2530,
      "straight": 2531,
      "ouses": 2532,
      "cape": 2533,
      "liberty": 2534,
      "Chapter": 2535,
      "ager": 2536,
      "noble": 2537,
      "uous": 2538,
      "period": 2539,
      "shop": 2540,
      "admir": 2541,
      "naturally": 2542,
      "key": 2543,
      "value": 2544,
      "cit": 2545,
      "principles": 2546,
      "property": 2547,
      "gall": 2548,
      "susp": 2549,
      "quant": 2550,
      "pleased": 2551,
      "silver": 2552,
      "Dan": 2553,
      "higher": 2554,
      "animals": 2555,
      "tender": 2556,
      "closed": 2557,
      "gods": 2558,
      "various": 2559,
      "compl": 2560,
      "otherwise": 2561,
      "distribut": 2562,
      "silent": 2563,
      "ancient": 2564,
      "sion": 2565,
      "below": 2566,
      "cloud": 2567,
      "fight": 2568,
      "bles": 2569,
      "lected": 2570,
      "obliged": 2571,
      "gaz": 2572,
      "hun": 2573,
      "deed": 2574,
      "besides": 2575,
      "furn": 2576,
      "lief": 2577,
      "sufficient": 2578,
      "kiss": 2579,
      "reme": 2580,
      "net": 2581,
      "box": 2582,
      "price": 2583,
      "moral": 2584,
      "mi": 2585,
      "instant": 2586,
      "ille": 2587,
      "scr": 2588,
      "boys": 2589,
      "gentlemen": 2590,
      "Col": 2591,
      "cand": 2592,
      "hang": 2593,
      "Reply": 2594,
      "fancy": 2595,
      "mit": 2596,
      "uel": 2597,
      "wide": 2598,
      "aught": 2599,
      "carriage": 2600,
      "youth": 2601,
      "cost": 2602,
      "affection": 2603,
      "superi": 2604,
      "meaning": 2605,
      "rul": 2606,
      "Never": 2607,
      "confess": 2608,
      "Captain": 2609,
      ":—": 2610,
      "iding": 2611,
      "forget": 2612,
      "prince": 2613,
      "formation": 2614,
      "worthy": 2615,
      "fash": 2616,
      "erable": 2617,
      "pop": 2618,
      "fee": 2619,
      "system": 2620,
      "bid": 2621,
      "charm": 2622,
      "feelings": 2623,
      "charge": 2624,
      "bow": 2625,
      "fro": 2626,
      "ils": 2627,
      "worse": 2628,
      "United": 2629,
      "necessity": 2630,
      "shut": 2631,
      "oppos": 2632,
      "desc": 2633,
      "France": 2634,
      "bas": 2635,
      "concerning": 2636,
      "mn": 2637,
      "univers": 2638,
      "lan": 2639,
      "argu": 2640,
      "temper": 2641,
      "houses": 2642,
      "itable": 2643,
      "cot": 2644,
      "rate": 2645,
      "married": 2646,
      "ball": 2647,
      "Car": 2648,
      "grew": 2649,
      "doctor": 2650,
      "ony": 2651,
      "prep": 2652,
      "books": 2653,
      "rain": 2654,
      "space": 2655,
      "hot": 2656,
      "aste": 2657,
      "week": 2658,
      "isted": 2659,
      "ric": 2660,
      "Ge": 2661,
      "squ": 2662,
      "gress": 2663,
      "ption": 2664,
      "passing": 2665,
      "retched": 2666,
      "ronic": 2667,
      "private": 2668,
      "nal": 2669,
      "grad": 2670,
      "coat": 2671,
      "Lon": 2672,
      "altogether": 2673,
      "bal": 2674,
      "Yet": 2675,
      "moon": 2676,
      "Thy": 2677,
      "showed": 2678,
      "sn": 2679,
      "bert": 2680,
      "shed": 2681,
      "gry": 2682,
      "repeated": 2683,
      "eks": 2684,
      "courage": 2685,
      "shar": 2686,
      "difficulty": 2687,
      "cher": 2688,
      "breath": 2689,
      "waiting": 2690,
      "appears": 2691,
      "Mic": 2692,
      "stro": 2693,
      "river": 2694,
      "Such": 2695,
      "powers": 2696,
      "London": 2697,
      "sick": 2698,
      "educ": 2699,
      "Ly": 2700,
      "outside": 2701,
      "exerc": 2702,
      "theless": 2703,
      "toward": 2704,
      "fami": 2705,
      "Just": 2706,
      "lives": 2707,
      "drawing": 2708,
      "lands": 2709,
      "middle": 2710,
      "superior": 2711,
      "iced": 2712,
      "Your": 2713,
      "trade": 2714,
      "calm": 2715,
      "goes": 2716,
      "Hen": 2717,
      "spl": 2718,
      "commun": 2719,
      "bor": 2720,
      "direction": 2721,
      "notice": 2722,
      "alter": 2723,
      "knowing": 2724,
      "pping": 2725,
      "shout": 2726,
      "ende": 2727,
      "fashion": 2728,
      "stock": 2729,
      "material": 2730,
      "save": 2731,
      "grat": 2732,
      "important": 2733,
      "origin": 2734,
      "Can": 2735,
      "infer": 2736,
      "spot": 2737,
      "hung": 2738,
      "velo": 2739,
      "bread": 2740,
      "sw": 2741,
      ".—": 2742,
      "drawn": 2743,
      "curious": 2744,
      "sky": 2745,
      "Law": 2746,
      "inhabit": 2747,
      "ggest": 2748,
      "lean": 2749,
      "opport": 2750,
      "aled": 2751,
      "simil": 2752,
      "angels": 2753,
      "instance": 2754,
      "honest": 2755,
      "floor": 2756,
      "suggest": 2757,
      "apo": 2758,
      "looks": 2759,
      "visible": 2760,
      "dare": 2761,
      "Bar": 2762,
      "ét": 2763,
      "resem": 2764,
      "learned": 2765,
      "terrible": 2766,
      "sett": 2767,
      "using": 2768,
      "affect": 2769,
      "slowly": 2770,
      "whisper": 2771,
      "actions": 2772,
      "office": 2773,
      "captain": 2774,
      "produced": 2775,
      "exclaimed": 2776,
      "17": 2777,
      "claim": 2778,
      "reck": 2779,
      "ision": 2780,
      "istr": 2781,
      "farm": 2782,
      "beat": 2783,
      "wealth": 2784,
      "creatures": 2785,
      "heel": 2786,
      "allowed": 2787,
      "female": 2788,
      "months": 2789,
      "miles": 2790,
      "eness": 2791,
      "empt": 2792,
      "kill": 2793,
      "died": 2794,
      "ify": 2795,
      "ga": 2796,
      "later": 2797,
      "uded": 2798,
      "ize": 2799,
      "arrived": 2800,
      "determined": 2801,
      "citiz": 2802,
      "memory": 2803,
      "pull": 2804,
      "cab": 2805,
      "pound": 2806,
      "succeed": 2807,
      "rise": 2808,
      "names": 2809,
      "Am": 2810,
      "send": 2811,
      "conv": 2812,
      "ban": 2813,
      "twi": 2814,
      "vain": 2815,
      "sorrow": 2816,
      "lest": 2817,
      "pressed": 2818,
      "Fo": 2819,
      "caught": 2820,
      "gives": 2821,
      "pocket": 2822,
      "apart": 2823,
      "marry": 2824,
      "lame": 2825,
      "ding": 2826,
      "rule": 2827,
      "jection": 2828,
      "Adam": 2829,
      "Bro": 2830,
      "electronic": 2831,
      "cro": 2832,
      "created": 2833,
      "fold": 2834,
      "Our": 2835,
      "ux": 2836,
      "spirits": 2837,
      "ST": 2838,
      "fles": 2839,
      "uff": 2840,
      "Son": 2841,
      "ander": 2842,
      "ners": 2843,
      "movement": 2844,
      "Man": 2845,
      "scarcely": 2846,
      "foreign": 2847,
      "colour": 2848,
      "ping": 2849,
      "proved": 2850,
      "eneath": 2851,
      "Dr": 2852,
      "due": 2853,
      "itary": 2854,
      "aver": 2855,
      "ushed": 2856,
      "ba": 2857,
      "pride": 2858,
      "Lady": 2859,
      "orders": 2860,
      "neck": 2861,
      "Whether": 2862,
      "idently": 2863,
      "ED": 2864,
      "apt": 2865,
      "speech": 2866,
      "uttered": 2867,
      "rapid": 2868,
      "thro": 2869,
      "mass": 2870,
      "tte": 2871,
      "hab": 2872,
      "cham": 2873,
      "sav": 2874,
      "comb": 2875,
      "aston": 2876,
      "trying": 2877,
      "vic": 2878,
      "ables": 2879,
      "proof": 2880,
      "Br": 2881,
      "profess": 2882,
      "Lou": 2883,
      "Rome": 2884,
      "agreeable": 2885,
      "pit": 2886,
      "qual": 2887,
      "spoken": 2888,
      "10": 2889,
      "quantity": 2890,
      "ude": 2891,
      "bran": 2892,
      "believed": 2893,
      "animal": 2894,
      "Sam": 2895,
      "shore": 2896,
      "example": 2897,
      "opposite": 2898,
      "mill": 2899,
      "omen": 2900,
      "marriage": 2901,
      "regular": 2902,
      "ladies": 2903,
      "surprise": 2904,
      "ises": 2905,
      ".--": 2906,
      "couldn": 2907,
      "pread": 2908,
      "heads": 2909,
      "quarter": 2910,
      "kno": 2911,
      "sharp": 2912,
      "conduct": 2913,
      "Further": 2914,
      "IV": 2915,
      "—”": 2916,
      "thick": 2917,
      "manif": 2918,
      "cheer": 2919,
      "extreme": 2920,
      "pity": 2921,
      "ears": 2922,
      "somewhat": 2923,
      "mult": 2924,
      "servant": 2925,
      "Found": 2926,
      "ature": 2927,
      "write": 2928,
      "simply": 2929,
      "orge": 2930,
      "capable": 2931,
      "iently": 2932,
      "army": 2933,
      "takes": 2934,
      "exactly": 2935,
      "antic": 2936,
      "tenance": 2937,
      "Gree": 2938,
      "lose": 2939,
      "See": 2940,
      "Are": 2941,
      "snow": 2942,
      "va": 2943,
      "quickly": 2944,
      "clothes": 2945,
      "Hence": 2946,
      "beside": 2947,
      "La": 2948,
      "cou": 2949,
      "pra": 2950,
      "phys": 2951,
      "card": 2952,
      "earnest": 2953,
      "conven": 2954,
      "ancing": 2955,
      "io": 2956,
      "darkness": 2957,
      "elle": 2958,
      "holding": 2959,
      "infinite": 2960,
      "streets": 2961,
      "AT": 2962,
      "beneath": 2963,
      "ague": 2964,
      "neg": 2965,
      "quis": 2966,
      "extra": 2967,
      "discover": 2968,
      "enemy": 2969,
      "promise": 2970,
      "wouldn": 2971,
      "satisfied": 2972,
      "bing": 2973,
      "ator": 2974,
      "oth": 2975,
      "faction": 2976,
      "seek": 2977,
      "talked": 2978,
      "anted": 2979,
      "blind": 2980,
      "loss": 2981,
      "ès": 2982,
      "considerable": 2983,
      "lif": 2984,
      "compreh": 2985,
      "brid": 2986,
      "ina": 2987,
      "fallen": 2988,
      "forest": 2989,
      "destroy": 2990,
      "music": 2991,
      "uit": 2992,
      "AND": 2993,
      "imagination": 2994,
      "RO": 2995,
      "nobody": 2996,
      "running": 2997,
      "eral": 2998,
      "stop": 2999,
      "leaving": 3000,
      "ots": 3001,
      "spite": 3002,
      "lli": 3003,
      "iles": 3004,
      "evident": 3005,
      "tong": 3006,
      "escape": 3007,
      "substance": 3008,
      "sensible": 3009,
      "mentioned": 3010,
      "Foundation": 3011,
      "spread": 3012,
      "conception": 3013,
      "sorry": 3014,
      "happen": 3015,
      "acle": 3016,
      "eager": 3017,
      "summer": 3018,
      "broad": 3019,
      "Fanny": 3020,
      "inno": 3021,
      "reven": 3022,
      "ains": 3023,
      "gun": 3024,
      "inf": 3025,
      "rough": 3026,
      "glance": 3027,
      "handsome": 3028,
      "aff": 3029,
      "mut": 3030,
      "noise": 3031,
      "endeav": 3032,
      "hid": 3033,
      "ease": 3034,
      "likewise": 3035,
      "walking": 3036,
      "ING": 3037,
      "Did": 3038,
      "dam": 3039,
      "discovered": 3040,
      "Ma": 3041,
      "judgment": 3042,
      "battle": 3043,
      "15": 3044,
      "ib": 3045,
      "mode": 3046,
      "minister": 3047,
      "letters": 3048,
      "America": 3049,
      "Pan": 3050,
      "reply": 3051,
      "bare": 3052,
      "ulation": 3053,
      "leaves": 3054,
      "honor": 3055,
      "Have": 3056,
      "thank": 3057,
      "stir": 3058,
      "laughed": 3059,
      "taste": 3060,
      "proud": 3061,
      "faces": 3062,
      "stor": 3063,
      "legs": 3064,
      "crim": 3065,
      "inj": 3066,
      "food": 3067,
      "apparent": 3068,
      "fish": 3069,
      "erous": 3070,
      "search": 3071,
      "afford": 3072,
      "lod": 3073,
      "imagine": 3074,
      "health": 3075,
      "compar": 3076,
      "observ": 3077,
      "thin": 3078,
      "burst": 3079,
      "thed": 3080,
      "taining": 3081,
      "broke": 3082,
      "killed": 3083,
      "deliver": 3084,
      "intro": 3085,
      "serve": 3086,
      "!—": 3087,
      "result": 3088,
      "threw": 3089,
      "sell": 3090,
      "ays": 3091,
      "similar": 3092,
      "ires": 3093,
      "stream": 3094,
      "benef": 3095,
      "Gener": 3096,
      "Heaven": 3097,
      "================": 3098,
      "monstr": 3099,
      "Book": 3100,
      "shadow": 3101,
      "willing": 3102,
      "girls": 3103,
      "associ": 3104,
      "attach": 3105,
      "possession": 3106,
      "bottom": 3107,
      "Brit": 3108,
      "VI": 3109,
      "keeping": 3110,
      "LA": 3111,
      "cing": 3112,
      "inn": 3113,
      "yard": 3114,
      "inquir": 3115,
      "doth": 3116,
      "meth": 3117,
      "kets": 3118,
      "lock": 3119,
      "communic": 3120,
      "angel": 3121,
      "flowers": 3122,
      "However": 3123,
      "assist": 3124,
      "maid": 3125,
      "introdu": 3126,
      "lip": 3127,
      "frequently": 3128,
      "Their": 3129,
      "isto": 3130,
      "deb": 3131,
      "Ph": 3132,
      "Nothing": 3133,
      "mach": 3134,
      "evidently": 3135,
      "16": 3136,
      "tic": 3137,
      "Aug": 3138,
      "Porthos": 3139,
      "serious": 3140,
      "require": 3141,
      "accus": 3142,
      "Thee": 3143,
      "process": 3144,
      "Rus": 3145,
      "osity": 3146,
      "Jean": 3147,
      "May": 3148,
      "ames": 3149,
      "minds": 3150,
      "matters": 3151,
      "equally": 3152,
      "study": 3153,
      "clean": 3154,
      "dry": 3155,
      "eper": 3156,
      "affairs": 3157,
      "sides": 3158,
      "etty": 3159,
      "reading": 3160,
      "companion": 3161,
      "writing": 3162,
      "attack": 3163,
      "officer": 3164,
      "employed": 3165,
      "aries": 3166,
      "liked": 3167,
      "illa": 3168,
      "cler": 3169,
      "scene": 3170,
      "fail": 3171,
      "language": 3172,
      "clim": 3173,
      "freed": 3174,
      "situation": 3175,
      "ferred": 3176,
      "Ca": 3177,
      "breakfast": 3178,
      "persu": 3179,
      "walls": 3180,
      "journey": 3181,
      "asc": 3182,
      "wicked": 3183,
      "distur": 3184,
      "Church": 3185,
      "measure": 3186,
      "Har": 3187,
      "resist": 3188,
      "joined": 3189,
      "Marius": 3190,
      "murder": 3191,
      "wisdom": 3192,
      "ded": 3193,
      "vast": 3194,
      "fet": 3195,
      "decided": 3196,
      "Even": 3197,
      "counter": 3198,
      "confidence": 3199,
      "philosopher": 3200,
      "Ger": 3201,
      "news": 3202,
      "questions": 3203,
      "CE": 3204,
      "August": 3205,
      "agreement": 3206,
      "nations": 3207,
      "breast": 3208,
      "cts": 3209,
      "highest": 3210,
      "sword": 3211,
      "oted": 3212,
      "phen": 3213,
      "win": 3214,
      "excl": 3215,
      "grass": 3216,
      "started": 3217,
      "jesty": 3218,
      "senses": 3219,
      "catch": 3220,
      "magn": 3221,
      "sigh": 3222,
      "gif": 3223,
      "loud": 3224,
      "rock": 3225,
      "ardon": 3226,
      "consequently": 3227,
      "consequence": 3228,
      "omy": 3229,
      "vision": 3230,
      "bitter": 3231,
      "Saint": 3232,
      "_I": 3233,
      "hes": 3234,
      "leep": 3235,
      "putting": 3236,
      "report": 3237,
      "capital": 3238,
      "particularly": 3239,
      "opportunity": 3240,
      "fond": 3241,
      "shown": 3242,
      "afternoon": 3243,
      "dep": 3244,
      "accident": 3245,
      "recei": 3246,
      "respond": 3247,
      "modern": 3248,
      "aked": 3249,
      "woods": 3250,
      "Doro": 3251,
      "settled": 3252,
      "shame": 3253,
      "develo": 3254,
      "wear": 3255,
      "Mil": 3256,
      "narrow": 3257,
      "thirty": 3258,
      "harm": 3259,
      "zen": 3260,
      "beast": 3261,
      "queen": 3262,
      "ential": 3263,
      "utions": 3264,
      "glory": 3265,
      "err": 3266,
      "coach": 3267,
      "Pl": 3268,
      "cruel": 3269,
      "fifty": 3270,
      "rog": 3271,
      "Rue": 3272,
      "obey": 3273,
      "acquaint": 3274,
      "Count": 3275,
      "uce": 3276,
      "sacri": 3277,
      "consu": 3278,
      "Great": 3279,
      "satisfaction": 3280,
      "Ab": 3281,
      "mes": 3282,
      "rare": 3283,
      "oul": 3284,
      "discus": 3285,
      "bold": 3286,
      "AS": 3287,
      "passage": 3288,
      "directly": 3289,
      "gin": 3290,
      "lst": 3291,
      "Jane": 3292,
      "weight": 3293,
      "Pres": 3294,
      "iments": 3295,
      "shot": 3296,
      "Ha": 3297,
      "vey": 3298,
      "intellectual": 3299,
      "winter": 3300,
      "stranger": 3301,
      "observe": 3302,
      "custom": 3303,
      "cult": 3304,
      "design": 3305,
      "Master": 3306,
      "progress": 3307,
      "necessarily": 3308,
      "philosophy": 3309,
      "members": 3310,
      "surprised": 3311,
      "Gu": 3312,
      "zz": 3313,
      "Ital": 3314,
      "servants": 3315,
      "shook": 3316,
      "season": 3317,
      "absolutely": 3318,
      "ceptions": 3319,
      "relations": 3320,
      "pes": 3321,
      "seat": 3322,
      "George": 3323,
      "American": 3324,
      "Ste": 3325,
      "song": 3326,
      "indif": 3327,
      "legis": 3328,
      "General": 3329,
      "dign": 3330,
      "attend": 3331,
      "Bes": 3332,
      "ker": 3333,
      "exceed": 3334,
      "thered": 3335,
      "presented": 3336,
      "solemn": 3337,
      "tur": 3338,
      "tall": 3339,
      "points": 3340,
      "edge": 3341,
      "truly": 3342,
      "everybody": 3343,
      "thur": 3344,
      "tea": 3345,
      "village": 3346,
      "dig": 3347,
      "forgotten": 3348,
      "manifest": 3349,
      "welve": 3350,
      "essence": 3351,
      "Andrew": 3352,
      "preced": 3353,
      "abs": 3354,
      "Fir": 3355,
      "Hetty": 3356,
      "chap": 3357,
      "Emma": 3358,
      ".]": 3359,
      "IT": 3360,
      "fed": 3361,
      "som": 3362,
      "Arthur": 3363,
      "education": 3364,
      "adi": 3365,
      "civil": 3366,
      "hurt": 3367,
      "Perhaps": 3368,
      "acity": 3369,
      "caused": 3370,
      "contem": 3371,
      "TION": 3372,
      "forced": 3373,
      "ares": 3374,
      "ump": 3375,
      "countenance": 3376,
      "priest": 3377,
      "peror": 3378,
      "convi": 3379,
      "whilst": 3380,
      "dust": 3381,
      "suspic": 3382,
      "bir": 3383,
      "science": 3384,
      "instinct": 3385,
      "impression": 3386,
      "ásha": 3387,
      "excellent": 3388,
      "offered": 3389,
      "picture": 3390,
      "sty": 3391,
      "consent": 3392,
      "tw": 3393,
      "played": 3394,
      "laughing": 3395,
      "gest": 3396,
      "swi": 3397,
      "delic": 3398,
      "dressed": 3399,
      "Very": 3400,
      "vation": 3401,
      "yield": 3402,
      "appointed": 3403,
      "height": 3404,
      "rob": 3405,
      "hide": 3406,
      "eld": 3407,
      "amis": 3408,
      "prec": 3409,
      "thrown": 3410,
      "ordered": 3411,
      "star": 3412,
      "fill": 3413,
      "itive": 3414,
      "unknown": 3415,
      "perceived": 3416,
      "religion": 3417,
      "pair": 3418,
      "ites": 3419,
      "quality": 3420,
      "ww": 3421,
      "rever": 3422,
      "required": 3423,
      "alarm": 3424,
      "grou": 3425,
      "share": 3426,
      "political": 3427,
      "Sun": 3428,
      "mankind": 3429,
      "wonderful": 3430,
      "personal": 3431,
      "soever": 3432,
      "distant": 3433,
      "grown": 3434,
      "blow": 3435,
      "sens": 3436,
      "**": 3437,
      "12": 3438,
      "Cas": 3439,
      "asleep": 3440,
      "CT": 3441,
      "agement": 3442,
      "touched": 3443,
      "moving": 3444,
      "officers": 3445,
      "horn": 3446,
      "ctr": 3447,
      "Lyd": 3448,
      "chamber": 3449,
      "aby": 3450,
      "iff": 3451,
      "og": 3452,
      "ville": 3453,
      "fault": 3454,
      "posing": 3455,
      "abe": 3456,
      "sacrif": 3457,
      "hearing": 3458,
      "addition": 3459,
      "social": 3460,
      "Monte": 3461,
      "eternal": 3462,
      "appreh": 3463,
      "actually": 3464,
      "prepared": 3465,
      "extraordinary": 3466,
      "windows": 3467,
      "possessed": 3468,
      "DE": 3469,
      "bent": 3470,
      "ns": 3471,
      "pic": 3472,
      "revol": 3473,
      "bul": 3474,
      "acious": 3475,
      "surround": 3476,
      "presently": 3477,
      "independ": 3478,
      "rising": 3479,
      "olly": 3480,
      "terday": 3481,
      "conditions": 3482,
      "twelve": 3483,
      "itated": 3484,
      "avoid": 3485,
      "fined": 3486,
      "tin": 3487,
      "effort": 3488,
      "Eliz": 3489,
      "da": 3490,
      "passions": 3491,
      "Natásha": 3492,
      "While": 3493,
      "ags": 3494,
      "Aramis": 3495,
      "method": 3496,
      "island": 3497,
      "wore": 3498,
      "mond": 3499,
      "month": 3500,
      "cat": 3501,
      "Which": 3502,
      "begun": 3503,
      "double": 3504,
      "pense": 3505,
      "remembered": 3506,
      "universal": 3507,
      "ili": 3508,
      "train": 3509,
      "original": 3510,
      "freedom": 3511,
      "Sm": 3512,
      "image": 3513,
      "unk": 3514,
      "crown": 3515,
      "usually": 3516,
      "weather": 3517,
      "splend": 3518,
      "een": 3519,
      "oned": 3520,
      "rie": 3521,
      "myster": 3522,
      "teeth": 3523,
      "meeting": 3524,
      "Jack": 3525,
      "umph": 3526,
      "aph": 3527,
      "goods": 3528,
      "stead": 3529,
      "spent": 3530,
      "risto": 3531,
      "favor": 3532,
      "Plat": 3533,
      "heat": 3534,
      "cra": 3535,
      "shoulder": 3536,
      "active": 3537,
      "countries": 3538,
      "uced": 3539,
      "tongue": 3540,
      "ix": 3541,
      "tired": 3542,
      "mas": 3543,
      "pred": 3544,
      "effects": 3545,
      "AM": 3546,
      "Ju": 3547,
      "bill": 3548,
      "arts": 3549,
      "anybody": 3550,
      "useful": 3551,
      "comfortable": 3552,
      "wholly": 3553,
      "smiled": 3554,
      "finished": 3555,
      "witness": 3556,
      "angry": 3557,
      "mod": 3558,
      "engaged": 3559,
      "midst": 3560,
      "Charles": 3561,
      "ell": 3562,
      "forty": 3563,
      "anyone": 3564,
      "sexes": 3565,
      "neighbour": 3566,
      "consist": 3567,
      "14": 3568,
      "sympath": 3569,
      "Made": 3570,
      "becomes": 3571,
      "prim": 3572,
      "ounced": 3573,
      "holy": 3574,
      "greatly": 3575,
      "brea": 3576,
      "possibility": 3577,
      "Li": 3578,
      "Ser": 3579,
      "advent": 3580,
      "rote": 3581,
      "market": 3582,
      "belongs": 3583,
      "rupted": 3584,
      "clearly": 3585,
      "slave": 3586,
      "access": 3587,
      "rooms": 3588,
      "remains": 3589,
      "established": 3590,
      "ching": 3591,
      "conscience": 3592,
      "distin": 3593,
      "ras": 3594,
      "ral": 3595,
      "Cer": 3596,
      "yer": 3597,
      "Span": 3598,
      "Ville": 3599,
      "aim": 3600,
      "tis": 3601,
      "mighty": 3602,
      "nearer": 3603,
      "nine": 3604,
      "nice": 3605,
      "wash": 3606,
      "cous": 3607,
      "station": 3608,
      "arest": 3609,
      "police": 3610,
      "follows": 3611,
      "yellow": 3612,
      "Roman": 3613,
      "ially": 3614,
      "pin": 3615,
      "amb": 3616,
      "Besides": 3617,
      "enced": 3618,
      "eign": 3619,
      "sour": 3620,
      "extent": 3621,
      "Prin": 3622,
      "Arch": 3623,
      "playing": 3624,
      "soldiers": 3625,
      "commonly": 3626,
      "anxious": 3627,
      "mitted": 3628,
      "wrote": 3629,
      "attered": 3630,
      "miserable": 3631,
      "listened": 3632,
      "notion": 3633,
      "logy": 3634,
      "ounce": 3635,
      "expressed": 3636,
      "fly": 3637,
      "acts": 3638,
      "states": 3639,
      "growing": 3640,
      "First": 3641,
      "Mer": 3642,
      "hence": 3643,
      "stick": 3644,
      "complain": 3645,
      "working": 3646,
      "resolved": 3647,
      "despair": 3648,
      "consideration": 3649,
      "attribut": 3650,
      "smiling": 3651,
      "organ": 3652,
      "franc": 3653,
      "indic": 3654,
      "worn": 3655,
      "phenomen": 3656,
      "brown": 3657,
      "ification": 3658,
      "fingers": 3659,
      "contro": 3660,
      "wants": 3661,
      "citizens": 3662,
      "hero": 3663,
      "Louis": 3664,
      "properly": 3665,
      "West": 3666,
      "iety": 3667,
      "nose": 3668,
      "term": 3669,
      "listen": 3670,
      "Cristo": 3671,
      "ien": 3672,
      "itor": 3673,
      "pardon": 3674,
      "doors": 3675,
      "souls": 3676,
      "Diam": 3677,
      "sought": 3678,
      "urs": 3679,
      "females": 3680,
      "voy": 3681,
      "yesterday": 3682,
      "occupied": 3683,
      "taught": 3684,
      "finding": 3685,
      "roof": 3686,
      "opening": 3687,
      "Diamond": 3688,
      "blessed": 3689,
      "alous": 3690,
      "Though": 3691,
      "regarded": 3692,
      "flesh": 3693,
      "ère": 3694,
      "isn": 3695,
      "stones": 3696,
      "onel": 3697,
      "noticed": 3698,
      "tray": 3699,
      "Cather": 3700,
      "mat": 3701,
      "invent": 3702,
      "reality": 3703,
      "qualities": 3704,
      "pill": 3705,
      "choice": 3706,
      "explained": 3707,
      "familiar": 3708,
      "cook": 3709,
      "Nature": 3710,
      "Catherine": 3711,
      "imper": 3712,
      "IR": 3713,
      "Im": 3714,
      "sme": 3715,
      "goodness": 3716,
      "ée": 3717,
      "uding": 3718,
      "aware": 3719,
      "AG": 3720,
      "pour": 3721,
      "Look": 3722,
      "subs": 3723,
      "rub": 3724,
      "jean": 3725,
      "watched": 3726,
      "behold": 3727,
      "consciousness": 3728,
      "Holy": 3729,
      "ceased": 3730,
      "shoulders": 3731,
      "event": 3732,
      "admit": 3733,
      "Valjean": 3734,
      "Cour": 3735,
      "recol": 3736,
      "pol": 3737,
      "fulness": 3738,
      "luck": 3739,
      "ENT": 3740,
      "uncle": 3741,
      "indust": 3742,
      "reasons": 3743,
      "dropped": 3744,
      "Par": 3745,
      "ldom": 3746,
      "Joe": 3747,
      "Russi": 3748,
      "acquaintance": 3749,
      "Bl": 3750,
      "expense": 3751,
      "óv": 3752,
      "forts": 3753,
      "doll": 3754,
      "pieces": 3755,
      "seated": 3756,
      "seless": 3757,
      "wed": 3758,
      "tum": 3759,
      "én": 3760,
      "farther": 3761,
      "finger": 3762,
      "Que": 3763,
      "yours": 3764,
      "cli": 3765,
      "events": 3766,
      "aside": 3767,
      "throw": 3768,
      "curi": 3769,
      "mistress": 3770,
      "nur": 3771,
      "kindness": 3772,
      "profit": 3773,
      "Villefort": 3774,
      "lines": 3775,
      "thinks": 3776,
      "acles": 3777,
      "exercise": 3778,
      "empty": 3779,
      "omin": 3780,
      "shape": 3781,
      "interesting": 3782,
      "TO": 3783,
      "seldom": 3784,
      "belief": 3785,
      "prepar": 3786,
      "prisoner": 3787,
      "13": 3788,
      "removed": 3789,
      "manners": 3790,
      "artic": 3791,
      "aken": 3792,
      "Only": 3793,
      "provided": 3794,
      "Wo": 3795,
      "tori": 3796,
      "alle": 3797,
      "alive": 3798,
      "calling": 3799,
      "choose": 3800,
      "telling": 3801,
      "reasonable": 3802,
      "tomed": 3803,
      "whale": 3804,
      "duke": 3805,
      "Dorrit": 3806,
      "warn": 3807,
      "singular": 3808,
      "Long": 3809,
      "triumph": 3810,
      "fortunate": 3811,
      "Sy": 3812,
      "hole": 3813,
      "crit": 3814,
      "invol": 3815,
      "seized": 3816,
      "eping": 3817,
      "preci": 3818,
      "Fl": 3819,
      "CON": 3820,
      "Ne": 3821,
      "bour": 3822,
      "upper": 3823,
      "everywhere": 3824,
      "copyright": 3825,
      "lia": 3826,
      "ainted": 3827,
      "moments": 3828,
      "drag": 3829,
      "completely": 3830,
      "dreadful": 3831,
      "promised": 3832,
      "special": 3833,
      "More": 3834,
      "fier": 3835,
      "thorough": 3836,
      "mountain": 3837,
      "praise": 3838,
      "entr": 3839,
      "advanced": 3840,
      "dangerous": 3841,
      "explan": 3842,
      "grate": 3843,
      "falling": 3844,
      "opinions": 3845,
      "LL": 3846,
      "terror": 3847,
      "licity": 3848,
      "exec": 3849,
      "Fri": 3850,
      "tran": 3851,
      "obsc": 3852,
      "ashed": 3853,
      "wretched": 3854,
      "detail": 3855,
      "quietly": 3856,
      "constit": 3857,
      "birth": 3858,
      "emies": 3859,
      "information": 3860,
      "century": 3861,
      "distress": 3862,
      "Greek": 3863,
      "intim": 3864,
      "inhabitants": 3865,
      "increase": 3866,
      "stat": 3867,
      "improve": 3868,
      "prud": 3869,
      "absence": 3870,
      "Again": 3871,
      "Little": 3872,
      "powerful": 3873,
      "probable": 3874,
      "dish": 3875,
      "partly": 3876,
      "desired": 3877,
      "waited": 3878,
      "spiritual": 3879,
      "faint": 3880,
      "propri": 3881,
      "mortal": 3882,
      "gradually": 3883,
      "cardinal": 3884,
      "corrupt": 3885,
      "correspond": 3886,
      "knees": 3887,
      "escap": 3888,
      "marked": 3889,
      "enemies": 3890,
      "cles": 3891,
      "rant": 3892,
      "misery": 3893,
      "19": 3894,
      "surface": 3895,
      "built": 3896,
      "importance": 3897,
      "Cl": 3898,
      "wheel": 3899,
      "sphere": 3900,
      "render": 3901,
      "accustomed": 3902,
      "doctr": 3903,
      "hither": 3904,
      "aux": 3905,
      "mark": 3906,
      "habits": 3907,
      "pan": 3908,
      "Because": 3909,
      "intended": 3910,
      "Clen": 3911,
      "perceive": 3912,
      "deri": 3913,
      "ships": 3914,
      "francs": 3915,
      "Clennam": 3916,
      "ension": 3917,
      "aband": 3918,
      "twice": 3919,
      "aters": 3920,
      "argument": 3921,
      "mercy": 3922,
      "rendered": 3923,
      "lake": 3924,
      "divided": 3925,
      "rom": 3926,
      "sper": 3927,
      "hurried": 3928,
      "hate": 3929,
      "restr": 3930,
      "ades": 3931,
      "000": 3932,
      "game": 3933,
      "vig": 3934,
      "Cose": 3935,
      "Sover": 3936,
      "yr": 3937,
      "secure": 3938,
      "rank": 3939,
      "stup": 3940,
      "amongst": 3941,
      "distinguished": 3942,
      "XV": 3943,
      "agg": 3944,
      "commod": 3945,
      "intention": 3946,
      "purch": 3947,
      "principal": 3948,
      "whence": 3949,
      "pointed": 3950,
      "carefully": 3951,
      "impat": 3952,
      "arrange": 3953,
      "assem": 3954,
      "leon": 3955,
      "Luci": 3956,
      "kni": 3957,
      "aient": 3958,
      "grief": 3959,
      "Lydgate": 3960,
      "kitch": 3961,
      "immen": 3962,
      "urge": 3963,
      "occurred": 3964,
      "kinds": 3965,
      "Cosette": 3966,
      "?\"": 3967,
      "manu": 3968,
      "fruit": 3969,
      "Gover": 3970,
      "wing": 3971,
      "butter": 3972,
      "whereas": 3973,
      "kingdom": 3974,
      "dull": 3975,
      "skin": 3976,
      "logical": 3977,
      "Ber": 3978,
      "igned": 3979,
      "threat": 3980,
      "cultiv": 3981,
      "solid": 3982,
      "subjects": 3983,
      "poses": 3984,
      "Henry": 3985,
      "remo": 3986,
      "scow": 3987,
      "parag": 3988,
      "Es": 3989,
      "dwell": 3990,
      "brave": 3991,
      "served": 3992,
      "monsieur": 3993,
      "amed": 3994,
      "famous": 3995,
      "interested": 3996,
      "Napo": 3997,
      "odd": 3998,
      "Those": 3999,
      "frightened": 4000,
      "charming": 4001,
      "sooner": 4002,
      "eding": 4003,
      "hurry": 4004,
      "curiosity": 4005,
      "lear": 4006,
      "sacred": 4007,
      "layer": 4008,
      "connected": 4009,
      "fate": 4010,
      "tu": 4011,
      "nevertheless": 4012,
      "contempl": 4013,
      "inquired": 4014,
      "quet": 4015,
      "concerned": 4016,
      "Hur": 4017,
      "hearts": 4018,
      "Was": 4019,
      "cha": 4020,
      "eds": 4021,
      "chan": 4022,
      "remarkable": 4023,
      "print": 4024,
      "applic": 4025,
      "calcul": 4026,
      "drop": 4027,
      "separate": 4028,
      "NO": 4029,
      "stars": 4030,
      "anged": 4031,
      "Sil": 4032,
      "weeks": 4033,
      "supper": 4034,
      "Bus": 4035,
      "Two": 4036,
      "worst": 4037,
      "“‘": 4038,
      "cool": 4039,
      "horri": 4040,
      "drive": 4041,
      "pounds": 4042,
      "derived": 4043,
      "Mike": 4044,
      "corre": 4045,
      "Div": 4046,
      "lifted": 4047,
      "manufact": 4048,
      "scri": 4049,
      "sand": 4050,
      "uted": 4051,
      "Napoleon": 4052,
      "Alice": 4053,
      "defect": 4054,
      "conqu": 4055,
      "plant": 4056,
      "distinction": 4057,
      "chest": 4058,
      "oblig": 4059,
      "brain": 4060,
      "minded": 4061,
      "facts": 4062,
      "fifteen": 4063,
      "inced": 4064,
      "united": 4065,
      "sufficiently": 4066,
      "Cor": 4067,
      "Rost": 4068,
      "vous": 4069,
      "grim": 4070,
      "constitution": 4071,
      "golden": 4072,
      "smoke": 4073,
      "thea": 4074,
      "composed": 4075,
      "constant": 4076,
      "Emperor": 4077,
      "fare": 4078,
      "proach": 4079,
      "named": 4080,
      "operation": 4081,
      "RI": 4082,
      "Oliver": 4083,
      "Sh": 4084,
      "feat": 4085,
      "exten": 4086,
      "ruin": 4087,
      "buy": 4088,
      "guess": 4089,
      "coloured": 4090,
      "possibly": 4091,
      "inferior": 4092,
      "bridge": 4093,
      "kov": 4094,
      "orm": 4095,
      "amount": 4096,
      "apped": 4097,
      "Elizabe": 4098,
      "lls": 4099,
      "ority": 4100,
      "reser": 4101,
      "suffered": 4102,
      "Dorothea": 4103,
      "20": 4104,
      "OO": 4105,
      "encour": 4106,
      "exists": 4107,
      "assured": 4108,
      "?—": 4109,
      "Ac": 4110,
      "finally": 4111,
      "wishes": 4112,
      "North": 4113,
      "dignity": 4114,
      "kitchen": 4115,
      "reader": 4116,
      "wand": 4117,
      "contempt": 4118,
      "este": 4119,
      "vessel": 4120,
      "Indian": 4121,
      "condem": 4122,
      "interval": 4123,
      "rush": 4124,
      "—“": 4125,
      "interests": 4126,
      "increased": 4127,
      "melan": 4128,
      "approached": 4129,
      "whenever": 4130,
      "Indeed": 4131,
      "attract": 4132,
      "voices": 4133,
      "Still": 4134,
      "merch": 4135,
      "igne": 4136,
      "divers": 4137,
      "paren": 4138,
      "myst": 4139,
      "vile": 4140,
      "credit": 4141,
      "building": 4142,
      "BE": 4143,
      "size": 4144,
      "directed": 4145,
      "mistake": 4146,
      "Poor": 4147,
      "acing": 4148,
      "cript": 4149,
      "profound": 4150,
      "choly": 4151,
      "watching": 4152,
      "ume": 4153,
      "nod": 4154,
      "duties": 4155,
      "treas": 4156,
      "lighted": 4157,
      "bestow": 4158,
      "mountains": 4159,
      "Elizabeth": 4160,
      "angers": 4161,
      "Rostóv": 4162,
      "Old": 4163,
      "antag": 4164,
      "laughter": 4165,
      "Sunday": 4166,
      "disposition": 4167,
      "highly": 4168,
      "ishop": 4169,
      "evol": 4170,
      "regul": 4171,
      "characters": 4172,
      "dying": 4173,
      "asha": 4174,
      "udes": 4175,
      "ignorant": 4176,
      "spec": 4177,
      "glars": 4178,
      "regret": 4179,
      "rational": 4180,
      "Amy": 4181,
      "Take": 4182,
      "plus": 4183,
      "pron": 4184,
      "raph": 4185,
      "ec": 4186,
      "tit": 4187,
      "accompl": 4188,
      "sorts": 4189,
      "described": 4190,
      "paragraph": 4191,
      "gs": 4192,
      "zy": 4193,
      "deck": 4194,
      "rules": 4195,
      "storm": 4196,
      "suffering": 4197,
      "reve": 4198,
      "worked": 4199,
      "fled": 4200,
      "capt": 4201,
      "Const": 4202,
      "carrying": 4203,
      "immense": 4204,
      "melancholy": 4205,
      "anti": 4206,
      "lted": 4207,
      "ré": 4208,
      "fol": 4209,
      "raise": 4210,
      "declared": 4211,
      "Fe": 4212,
      "practice": 4213,
      "Danglars": 4214,
      "excess": 4215,
      "applied": 4216,
      "resumed": 4217,
      "precise": 4218,
      "acquainted": 4219,
      "intelligence": 4220,
      "House": 4221,
      "convent": 4222,
      "native": 4223,
      "founded": 4224,
      "soldier": 4225,
      "dimin": 4226,
      "square": 4227,
      "cow": 4228,
      "itors": 4229,
      "reproach": 4230,
      "anda": 4231,
      "flower": 4232,
      "Before": 4233,
      "sympathy": 4234,
      "etc": 4235,
      "request": 4236,
      "lace": 4237,
      "papers": 4238,
      "corpo": 4239,
      "plainly": 4240,
      "ctive": 4241,
      "sover": 4242,
      "cking": 4243,
      "acted": 4244,
      "brilli": 4245,
      "suit": 4246,
      "ody": 4247,
      "interrupted": 4248,
      "immediate": 4249,
      "amid": 4250,
      "forming": 4251,
      "constantly": 4252,
      "hopes": 4253,
      "Certain": 4254,
      "becoming": 4255,
      "prior": 4256,
      "valu": 4257,
      "succeeded": 4258,
      "shine": 4259,
      "onely": 4260,
      "continue": 4261,
      "Doc": 4262,
      "camp": 4263,
      "inher": 4264,
      "issu": 4265,
      "dogs": 4266,
      "saved": 4267,
      "vice": 4268,
      "wounded": 4269,
      "circle": 4270,
      "umble": 4271,
      "larger": 4272,
      "severe": 4273,
      "sovereign": 4274,
      "urious": 4275,
      "amaz": 4276,
      "Bath": 4277,
      "ME": 4278,
      "ky": 4279,
      "thunder": 4280,
      "sche": 4281,
      "advance": 4282,
      "Pri": 4283,
      "fanci": 4284,
      "vest": 4285,
      "Union": 4286,
      "angl": 4287,
      "appet": 4288,
      "crying": 4289,
      "Spir": 4290,
      "ashamed": 4291,
      "thern": 4292,
      "actual": 4293,
      "UN": 4294,
      "sink": 4295,
      "wherein": 4296,
      "Wood": 4297,
      "del": 4298,
      "ideal": 4299,
      "hoped": 4300,
      "whispered": 4301,
      "speed": 4302,
      "Michel": 4303,
      "waters": 4304,
      "enorm": 4305,
      "supre": 4306,
      "asp": 4307,
      "shel": 4308,
      "cial": 4309,
      "sounds": 4310,
      "occasions": 4311,
      "cousin": 4312,
      "explanation": 4313,
      "aspect": 4314,
      "needs": 4315,
      "match": 4316,
      "mocr": 4317,
      "disappeared": 4318,
      "Augustine": 4319,
      "evidence": 4320,
      "pictures": 4321,
      "acquired": 4322,
      "compe": 4323,
      "iana": 4324,
      "bush": 4325,
      "fields": 4326,
      "était": 4327,
      "convinced": 4328,
      "unable": 4329,
      "fic": 4330,
      "stands": 4331,
      "join": 4332,
      "crime": 4333,
      "royal": 4334,
      "crossed": 4335,
      "conclusion": 4336,
      "US": 4337,
      "loose": 4338,
      "busy": 4339,
      "reflection": 4340,
      "remarked": 4341,
      "blame": 4342,
      "mois": 4343,
      "oke": 4344,
      "orous": 4345,
      "labor": 4346,
      "assure": 4347,
      "proposed": 4348,
      "surd": 4349,
      "affected": 4350,
      "apparently": 4351,
      "ost": 4352,
      "iture": 4353,
      "Gen": 4354,
      "arse": 4355,
      "secur": 4356,
      "erslayer": 4357,
      "Deerslayer": 4358,
      "hidden": 4359,
      "eBook": 4360,
      "viour": 4361,
      "colours": 4362,
      "ashing": 4363,
      "Sat": 4364,
      "ae": 4365,
      "perfection": 4366,
      "precious": 4367,
      "castle": 4368,
      "South": 4369,
      "ois": 4370,
      "violent": 4371,
      "frag": 4372,
      "coast": 4373,
      "disposed": 4374,
      "advice": 4375,
      "Au": 4376,
      "obed": 4377,
      "pause": 4378,
      "rested": 4379,
      "Ano": 4380,
      "Upon": 4381,
      "fur": 4382,
      "aker": 4383,
      "continually": 4384,
      "ado": 4385,
      "umb": 4386,
      "profession": 4387,
      "esteem": 4388,
      "worship": 4389,
      "circumstance": 4390,
      "excit": 4391,
      "nikov": 4392,
      "magistr": 4393,
      "desir": 4394,
      "Had": 4395,
      "sci": 4396,
      "ork": 4397,
      "rogoff": 4398,
      "Strogoff": 4399,
      "settle": 4400,
      "strict": 4401,
      "shouted": 4402,
      "yards": 4403,
      "ulty": 4404,
      "disput": 4405,
      "chim": 4406,
      "estic": 4407,
      "provide": 4408,
      "IX": 4409,
      "Tell": 4410,
      "Would": 4411,
      "nes": 4412,
      "unhappy": 4413,
      "north": 4414,
      "majesty": 4415,
      "flat": 4416,
      "Plato": 4417,
      "aling": 4418,
      "march": 4419,
      "ingen": 4420,
      "Micaw": 4421,
      "ta": 4422,
      "commer": 4423,
      "Thom": 4424,
      "limited": 4425,
      "punishment": 4426,
      "dur": 4427,
      "ets": 4428,
      "Liter": 4429,
      "Mother": 4430,
      "madame": 4431,
      "vague": 4432,
      "rig": 4433,
      "foolish": 4434,
      "contained": 4435,
      "clever": 4436,
      "ensive": 4437,
      "olas": 4438,
      "splendid": 4439,
      "Micawber": 4440,
      "ators": 4441,
      "absurd": 4442,
      "erson": 4443,
      "Word": 4444,
      "Fran": 4445,
      "excited": 4446,
      "Dant": 4447,
      "oh": 4448,
      "namely": 4449,
      "Marilla": 4450,
      "Another": 4451,
      "betray": 4452,
      "plent": 4453,
      "civi": 4454,
      "impul": 4455,
      "Foot": 4456,
      "Mas": 4457,
      "core": 4458,
      "tort": 4459,
      "variety": 4460,
      "ties": 4461,
      "oked": 4462,
      "mental": 4463,
      "gray": 4464,
      "cott": 4465,
      "cture": 4466,
      "ulous": 4467,
      "jealous": 4468,
      "rights": 4469,
      "corporeal": 4470,
      "candle": 4471,
      "learning": 4472,
      "branches": 4473,
      "execution": 4474,
      "30": 4475,
      "nut": 4476,
      "lover": 4477,
      "moiselle": 4478,
      "env": 4479,
      "level": 4480,
      "Prof": 4481,
      "agreed": 4482,
      "stupid": 4483,
      "Jim": 4484,
      "rous": 4485,
      "intu": 4486,
      "iest": 4487,
      "rage": 4488,
      "haven": 4489,
      "endent": 4490,
      "freely": 4491,
      "popular": 4492,
      "Des": 4493,
      "sees": 4494,
      "mony": 4495,
      "lets": 4496,
      "admitted": 4497,
      "innocent": 4498,
      "Dick": 4499,
      "related": 4500,
      "maj": 4501,
      "stern": 4502,
      "prevail": 4503,
      "thereby": 4504,
      "Albert": 4505,
      "proceeded": 4506,
      "tes": 4507,
      "ales": 4508,
      "attent": 4509,
      "useless": 4510,
      "liter": 4511,
      "creation": 4512,
      "preach": 4513,
      "religious": 4514,
      "knife": 4515,
      "Doctor": 4516,
      "ias": 4517,
      "specul": 4518,
      "admiration": 4519,
      "loving": 4520,
      "quires": 4521,
      "186": 4522,
      "rust": 4523,
      "covery": 4524,
      "glor": 4525,
      "cil": 4526,
      "efforts": 4527,
      "complex": 4528,
      "slaves": 4529,
      "Jew": 4530,
      "conceptions": 4531,
      "excuse": 4532,
      "bringing": 4533,
      "driven": 4534,
      "Benham": 4535,
      "UR": 4536,
      "gently": 4537,
      "lts": 4538,
      "gle": 4539,
      "delay": 4540,
      "rence": 4541,
      "surely": 4542,
      "bearing": 4543,
      "Rich": 4544,
      "itate": 4545,
      "kerchief": 4546,
      "uries": 4547,
      "considering": 4548,
      "virtues": 4549,
      "mysterious": 4550,
      "regards": 4551,
      "extremely": 4552,
      "lovely": 4553,
      "Ir": 4554,
      "thri": 4555,
      "asking": 4556,
      "style": 4557,
      "Spanish": 4558,
      "flight": 4559,
      "mud": 4560,
      "Bussy": 4561,
      "abstra": 4562,
      "project": 4563,
      "istic": 4564,
      "gathered": 4565,
      "Literary": 4566,
      "reput": 4567,
      "toms": 4568,
      "abb": 4569,
      "external": 4570,
      "respon": 4571,
      "sentiment": 4572,
      "national": 4573,
      "pursued": 4574,
      "execut": 4575,
      "vert": 4576,
      "trembling": 4577,
      "doctrine": 4578,
      "feared": 4579,
      "guest": 4580,
      "gained": 4581,
      "welcome": 4582,
      "weakness": 4583,
      "daily": 4584,
      "emotion": 4585,
      "parties": 4586,
      "shaking": 4587,
      "Peg": 4588,
      "Archive": 4589,
      "adop": 4590,
      "ache": 4591,
      "dozen": 4592,
      "listening": 4593,
      "formerly": 4594,
      "leading": 4595,
      "Diana": 4596,
      "beheld": 4597,
      "signs": 4598,
      "connection": 4599,
      "revenue": 4600,
      "Du": 4601,
      "abund": 4602,
      "ender": 4603,
      "practical": 4604,
      "clouds": 4605,
      "compared": 4606,
      "committed": 4607,
      "invest": 4608,
      "permission": 4609,
      "Judith": 4610,
      "cabin": 4611,
      "group": 4612,
      "50": 4613,
      "hom": 4614,
      "lux": 4615,
      "intelligible": 4616,
      "Footnote": 4617,
      "error": 4618,
      "fellows": 4619,
      "changes": 4620,
      "positions": 4621,
      "whereby": 4622,
      "supreme": 4623,
      "Pa": 4624,
      "chosen": 4625,
      "thyself": 4626,
      "burning": 4627,
      "informed": 4628,
      "forehead": 4629,
      "izing": 4630,
      "color": 4631,
      "observation": 4632,
      "exper": 4633,
      "exped": 4634,
      "prosper": 4635,
      "mounted": 4636,
      "11": 4637,
      "March": 4638,
      "anxiety": 4639,
      "rejo": 4640,
      "tocr": 4641,
      "desper": 4642,
      "numerous": 4643,
      "slept": 4644,
      "drove": 4645,
      "ignorance": 4646,
      "estate": 4647,
      "ints": 4648,
      "ivity": 4649,
      "reflect": 4650,
      "hills": 4651,
      "YOU": 4652,
      "lex": 4653,
      "indul": 4654,
      "prospect": 4655,
      "ruel": 4656,
      "genius": 4657,
      "pisto": 4658,
      "lift": 4659,
      "feather": 4660,
      "emark": 4661,
      "ieu": 4662,
      "cliff": 4663,
      "inclined": 4664,
      "faithful": 4665,
      "keeper": 4666,
      "nights": 4667,
      "gotty": 4668,
      "ggle": 4669,
      "salt": 4670,
      "guardian": 4671,
      "happens": 4672,
      "stronger": 4673,
      "striking": 4674,
      "frequent": 4675,
      "throat": 4676,
      "quisite": 4677,
      "Peggotty": 4678,
      "TY": 4679,
      "cure": 4680,
      "gay": 4681,
      "failed": 4682,
      "obst": 4683,
      "Rask": 4684,
      "Since": 4685,
      "mour": 4686,
      "otion": 4687,
      "armed": 4688,
      "Raskol": 4689,
      "arise": 4690,
      "buried": 4691,
      "individuals": 4692,
      "sensation": 4693,
      "Raskolnikov": 4694,
      "keys": 4695,
      "abo": 4696,
      "coll": 4697,
      "chiefly": 4698,
      "civiliz": 4699,
      "bosom": 4700,
      "obtain": 4701,
      "strike": 4702,
      "delicate": 4703,
      "wings": 4704,
      "thrust": 4705,
      "retreat": 4706,
      "setting": 4707,
      "murm": 4708,
      "savage": 4709,
      "Shall": 4710,
      "anal": 4711,
      "ato": 4712,
      "Cr": 4713,
      "south": 4714,
      "confusion": 4715,
      "Morrel": 4716,
      "Ghost": 4717,
      "prefer": 4718,
      "horror": 4719,
      "penet": 4720,
      "parents": 4721,
      "Sa": 4722,
      "mile": 4723,
      "beha": 4724,
      "usted": 4725,
      "singing": 4726,
      "entrance": 4727,
      "Und": 4728,
      "dance": 4729,
      "gather": 4730,
      "faculty": 4731,
      "Jacqu": 4732,
      "leap": 4733,
      "kindly": 4734,
      "delighted": 4735,
      "relief": 4736,
      "accompan": 4737,
      "indign": 4738,
      "grees": 4739,
      "Dar": 4740,
      "abroad": 4741,
      "somebody": 4742,
      "deny": 4743,
      "Sub": 4744,
      "agent": 4745,
      "Py": 4746,
      "Ven": 4747,
      "baby": 4748,
      "ashes": 4749,
      "Spe": 4750,
      "egg": 4751,
      "demonstr": 4752,
      "pulled": 4753,
      "resto": 4754,
      "sheep": 4755,
      "Certainly": 4756,
      "rum": 4757,
      "withstanding": 4758,
      "degrees": 4759,
      "uniform": 4760,
      "hanging": 4761,
      "voyage": 4762,
      "FOR": 4763,
      "bought": 4764,
      "bowed": 4765,
      "inside": 4766,
      "asmuch": 4767,
      "donations": 4768,
      "TIC": 4769,
      "dé": 4770,
      "arose": 4771,
      "ishes": 4772,
      "fix": 4773,
      "mistaken": 4774,
      "magnific": 4775,
      "zed": 4776,
      "fever": 4777,
      "rushed": 4778,
      "memor": 4779,
      "motions": 4780,
      "deeply": 4781,
      "sore": 4782,
      "bore": 4783,
      "hibit": 4784,
      "domestic": 4785,
      "smooth": 4786,
      "ops": 4787,
      "prejud": 4788,
      "neighbor": 4789,
      "rat": 4790,
      "utmost": 4791,
      "sentence": 4792,
      "horrible": 4793,
      "Power": 4794,
      "kn": 4795,
      "relie": 4796,
      "astic": 4797,
      "series": 4798,
      "kings": 4799,
      "Moscow": 4800,
      "including": 4801,
      "appointment": 4802,
      "cting": 4803,
      "William": 4804,
      "High": 4805,
      "fund": 4806,
      "friendly": 4807,
      "physical": 4808,
      "Pantag": 4809,
      "attended": 4810,
      "community": 4811,
      "escaped": 4812,
      "Sovera": 4813,
      "agger": 4814,
      "embar": 4815,
      "handkerchief": 4816,
      "fil": 4817,
      "cano": 4818,
      "brief": 4819,
      "subsist": 4820,
      "heap": 4821,
      "perpet": 4822,
      "exha": 4823,
      "multitude": 4824,
      ":--": 4825,
      "Lau": 4826,
      "democr": 4827,
      "destru": 4828,
      "Thomas": 4829,
      "AC": 4830,
      "cate": 4831,
      "unjust": 4832,
      "weary": 4833,
      "Nevertheless": 4834,
      "Pet": 4835,
      "dreams": 4836,
      "thoroughly": 4837,
      "Cop": 4838,
      "reward": 4839,
      "aristocr": 4840,
      "Cass": 4841,
      "pick": 4842,
      "rode": 4843,
      "uncertain": 4844,
      "emin": 4845,
      "desires": 4846,
      "arrival": 4847,
      "Princess": 4848,
      "Pantagruel": 4849,
      "Many": 4850,
      "refer": 4851,
      "stage": 4852,
      "owner": 4853,
      "instantly": 4854,
      "closely": 4855,
      "kissed": 4856,
      "rot": 4857,
      "Having": 4858,
      "indiffer": 4859,
      "grey": 4860,
      "lack": 4861,
      "guide": 4862,
      "Any": 4863,
      "hers": 4864,
      "constru": 4865,
      "contribut": 4866,
      "awful": 4867,
      "huge": 4868,
      "Van": 4869,
      "mild": 4870,
      "union": 4871,
      "retch": 4872,
      "dans": 4873,
      "recomm": 4874,
      "consum": 4875,
      "aging": 4876,
      "hosp": 4877,
      "...”": 4878,
      "shoes": 4879,
      "medium": 4880,
      "addressed": 4881,
      "beings": 4882,
      "thereof": 4883,
      "spare": 4884,
      "breaking": 4885,
      ";—": 4886,
      "etern": 4887,
      "conceive": 4888,
      "accepted": 4889,
      "Lucien": 4890,
      "jum": 4891,
      "toler": 4892,
      "peas": 4893,
      "merit": 4894,
      "previous": 4895,
      "task": 4896,
      "pel": 4897,
      "official": 4898,
      "shadows": 4899,
      "frame": 4900,
      "owned": 4901,
      "intent": 4902,
      "patient": 4903,
      "German": 4904,
      "grateful": 4905,
      "cence": 4906,
      "mess": 4907,
      "industry": 4908,
      "wid": 4909,
      "wasn": 4910,
      "hollow": 4911,
      "brow": 4912,
      "doesn": 4913,
      "numbers": 4914,
      "figures": 4915,
      "violence": 4916,
      "sacrifice": 4917,
      "James": 4918,
      "althy": 4919,
      "proble": 4920,
      "needed": 4921,
      "maintain": 4922,
      "trademark": 4923,
      "lier": 4924,
      "liance": 4925,
      "parl": 4926,
      "assistance": 4927,
      "source": 4928,
      "Dantès": 4929,
      "iable": 4930,
      "notes": 4931,
      "demanded": 4932,
      "cheerful": 4933,
      "fections": 4934,
      "plum": 4935,
      "lessly": 4936,
      "pipe": 4937,
      "atory": 4938,
      "rapidly": 4939,
      "stretched": 4940,
      "udder": 4941,
      "contradi": 4942,
      "touching": 4943,
      "tranqu": 4944,
      "Ple": 4945,
      "ading": 4946,
      "friendship": 4947,
      "reckon": 4948,
      "Smith": 4949,
      "Mat": 4950,
      "ician": 4951,
      "umber": 4952,
      "trial": 4953,
      "concern": 4954,
      "resolution": 4955,
      "Meg": 4956,
      "phenomena": 4957,
      "Nay": 4958,
      "insu": 4959,
      "paused": 4960,
      "returning": 4961,
      "imagined": 4962,
      "Rosa": 4963,
      "arranged": 4964,
      "quit": 4965,
      "somewhere": 4966,
      "haste": 4967,
      "smaller": 4968,
      "recognized": 4969,
      "Jes": 4970,
      "accoun": 4971,
      "military": 4972,
      "inquiry": 4973,
      "philosophers": 4974,
      "Gar": 4975,
      "modest": 4976,
      "thanks": 4977,
      "ission": 4978,
      ",)": 4979,
      "loves": 4980,
      "pow": 4981,
      "loc": 4982,
      "skill": 4983,
      "Richard": 4984,
      "struggle": 4985,
      "centre": 4986,
      "comparison": 4987,
      "Milady": 4988,
      "Bon": 4989,
      "Zar": 4990,
      "entine": 4991,
      "deliber": 4992,
      "Men": 4993,
      "bree": 4994,
      "san": 4995,
      "estim": 4996,
      "fling": 4997,
      "gloomy": 4998,
      "attached": 4999,
      "rase": 5000,
      "disci": 5001,
      "spend": 5002,
      "bottle": 5003,
      "Colonel": 5004,
      "amuse": 5005,
      "______": 5006,
      "occasionally": 5007,
      "________________": 5008,
      "Govern": 5009,
      "______________________": 5010,
      "During": 5011,
      "lla": 5012,
      "gazed": 5013,
      "leaning": 5014,
      "delivered": 5015,
      "crack": 5016,
      "_______________________": 5017,
      "Mid": 5018,
      "convey": 5019,
      "fairly": 5020,
      "masters": 5021,
      "sive": 5022,
      "és": 5023,
      "wanting": 5024,
      "llen": 5025,
      "aming": 5026,
      "exception": 5027,
      "sexual": 5028,
      "shalt": 5029,
      "vict": 5030,
      "showing": 5031,
      "prompt": 5032,
      "22": 5033,
      "Den": 5034,
      "wet": 5035,
      "strongly": 5036,
      "waist": 5037,
      "Queen": 5038,
      "Soveraign": 5039,
      "pul": 5040,
      "pled": 5041,
      "flour": 5042,
      "generation": 5043,
      "accompanied": 5044,
      "Alex": 5045,
      "ustra": 5046,
      "lights": 5047,
      "Sometimes": 5048,
      "Duch": 5049,
      "York": 5050,
      "cere": 5051,
      "rade": 5052,
      "perman": 5053,
      "illust": 5054,
      "cies": 5055,
      "Chic": 5056,
      "humanity": 5057,
      "utterly": 5058,
      "separated": 5059,
      "destroyed": 5060,
      "slo": 5061,
      "anywhere": 5062,
      "consists": 5063,
      "athustra": 5064,
      "entering": 5065,
      "Zarathustra": 5066,
      "):": 5067,
      "umn": 5068,
      "drunk": 5069,
      "confused": 5070,
      "division": 5071,
      "Ye": 5072,
      "stuff": 5073,
      "rude": 5074,
      "swift": 5075,
      "Give": 5076,
      "WH": 5077,
      "pier": 5078,
      "entreat": 5079,
      "whereof": 5080,
      "accur": 5081,
      "falls": 5082,
      "hatred": 5083,
      "softly": 5084,
      "suggested": 5085,
      "associated": 5086,
      "unch": 5087,
      "emb": 5088,
      "discourse": 5089,
      "oting": 5090,
      "Mus": 5091,
      "Nich": 5092,
      "Right": 5093,
      "pack": 5094,
      "irgin": 5095,
      "Chi": 5096,
      "Elin": 5097,
      "Sup": 5098,
      "forbid": 5099,
      "nel": 5100,
      "readily": 5101,
      "views": 5102,
      "independent": 5103,
      "Spirit": 5104,
      "Elinor": 5105,
      "text": 5106,
      "acket": 5107,
      "smith": 5108,
      "Wor": 5109,
      "hell": 5110,
      "current": 5111,
      "Prov": 5112,
      "Philoso": 5113,
      "record": 5114,
      "fourth": 5115,
      "advantages": 5116,
      "plenty": 5117,
      "ore": 5118,
      "oub": 5119,
      "atives": 5120,
      "raising": 5121,
      "counsel": 5122,
      "security": 5123,
      "sch": 5124,
      "experienced": 5125,
      "devoted": 5126,
      "Like": 5127,
      "QU": 5128,
      "swall": 5129,
      "tram": 5130,
      "apply": 5131,
      "painful": 5132,
      "imagin": 5133,
      "treated": 5134,
      "Edward": 5135,
      "Esther": 5136,
      "meat": 5137,
      "pleasures": 5138,
      "humble": 5139,
      "ante": 5140,
      "Coll": 5141,
      "Divine": 5142,
      "Fair": 5143,
      "obv": 5144,
      "cheeks": 5145,
      "patience": 5146,
      "employment": 5147,
      "British": 5148,
      "Under": 5149,
      "cret": 5150,
      "liness": 5151,
      "xim": 5152,
      "essential": 5153,
      "ilities": 5154,
      "discer": 5155,
      "universe": 5156,
      "Mademoiselle": 5157,
      "dollars": 5158,
      "Jacques": 5159,
      "Script": 5160,
      "lev": 5161,
      "heavenly": 5162,
      "surrounded": 5163,
      "powder": 5164,
      "OW": 5165,
      "eleg": 5166,
      "perception": 5167,
      "sons": 5168,
      "refuse": 5169,
      "empir": 5170,
      "concealed": 5171,
      "intuition": 5172,
      "Ill": 5173,
      "apa": 5174,
      "Thank": 5175,
      "suspicion": 5176,
      "Nicholas": 5177,
      "UT": 5178,
      "lid": 5179,
      "calls": 5180,
      "phrase": 5181,
      "companions": 5182,
      "thesis": 5183,
      "ggl": 5184,
      "parted": 5185,
      "seeking": 5186,
      "ministr": 5187,
      "charged": 5188,
      "delightful": 5189,
      "liken": 5190,
      "sisters": 5191,
      "agon": 5192,
      "throughout": 5193,
      "energy": 5194,
      "extended": 5195,
      "Aust": 5196,
      "Din": 5197,
      "sli": 5198,
      "cease": 5199,
      "angle": 5200,
      "membr": 5201,
      "Enter": 5202,
      "ushing": 5203,
      "brilliant": 5204,
      "rolled": 5205,
      "final": 5206,
      "Henri": 5207,
      ";”": 5208,
      "uf": 5209,
      "arin": 5210,
      "pains": 5211,
      "Pal": 5212,
      "andy": 5213,
      "ilty": 5214,
      "asted": 5215,
      "troubled": 5216,
      "supply": 5217,
      "disturbed": 5218,
      "lov": 5219,
      "couple": 5220,
      "shudder": 5221,
      "acknowled": 5222,
      "quarrel": 5223,
      "!\"": 5224,
      "ds": 5225,
      "sar": 5226,
      "shake": 5227,
      "shade": 5228,
      "Ver": 5229,
      "sof": 5230,
      "seigne": 5231,
      "quarters": 5232,
      "fierce": 5233,
      "ride": 5234,
      "yce": 5235,
      "valley": 5236,
      "develop": 5237,
      "py": 5238,
      "glanced": 5239,
      "tempor": 5240,
      "selection": 5241,
      "cean": 5242,
      "soil": 5243,
      "blance": 5244,
      "turns": 5245,
      "careful": 5246,
      "lui": 5247,
      "factory": 5248,
      "difficulties": 5249,
      "descended": 5250,
      "elder": 5251,
      "Constitution": 5252,
      "OL": 5253,
      "inity": 5254,
      "permitted": 5255,
      "Common": 5256,
      "keen": 5257,
      "gets": 5258,
      "24": 5259,
      "Bet": 5260,
      "stiff": 5261,
      "forgive": 5262,
      "rocks": 5263,
      "teers": 5264,
      "examined": 5265,
      "endeavour": 5266,
      "Casau": 5267,
      "Franz": 5268,
      "alike": 5269,
      "locked": 5270,
      "store": 5271,
      "wondered": 5272,
      "Valentine": 5273,
      "Che": 5274,
      "Tis": 5275,
      "shr": 5276,
      "lively": 5277,
      "preserve": 5278,
      "title": 5279,
      "bac": 5280,
      "absor": 5281,
      "whatsoever": 5282,
      "discovery": 5283,
      "ival": 5284,
      "iny": 5285,
      "ench": 5286,
      "lebr": 5287,
      "celebr": 5288,
      "deem": 5289,
      "partic": 5290,
      "Panurge": 5291,
      "fatal": 5292,
      "features": 5293,
      "Casaubon": 5294,
      "Si": 5295,
      "lamp": 5296,
      "slip": 5297,
      "ule": 5298,
      "aloud": 5299,
      "local": 5300,
      "track": 5301,
      "everyone": 5302,
      "existing": 5303,
      "accordingly": 5304,
      "bury": 5305,
      "belonging": 5306,
      "murmured": 5307,
      "likeness": 5308,
      "nail": 5309,
      "retired": 5310,
      "Brook": 5311,
      "termin": 5312,
      "laying": 5313,
      "President": 5314,
      "legisl": 5315,
      "mystery": 5316,
      "unexpected": 5317,
      "boots": 5318,
      "foundation": 5319,
      "younger": 5320,
      "borne": 5321,
      "ester": 5322,
      "loqu": 5323,
      "burden": 5324,
      "heavens": 5325,
      "fatig": 5326,
      "contented": 5327,
      "strode": 5328,
      "obedience": 5329,
      "mam": 5330,
      "reference": 5331,
      "sibility": 5332,
      "visions": 5333,
      "prayer": 5334,
      "SI": 5335,
      "bones": 5336,
      "vul": 5337,
      "onder": 5338,
      "attain": 5339,
      "hea": 5340,
      "unfortunate": 5341,
      "ubli": 5342,
      "descend": 5343,
      "Ham": 5344,
      "Mag": 5345,
      "nin": 5346,
      "ology": 5347,
      "addles": 5348,
      "VII": 5349,
      "bag": 5350,
      "bull": 5351,
      "pover": 5352,
      "indis": 5353,
      "ulated": 5354,
      "mixed": 5355,
      "seigneur": 5356,
      "requires": 5357,
      "awake": 5358,
      "differences": 5359,
      "satisf": 5360,
      "Britain": 5361,
      "Laurie": 5362,
      "Ay": 5363,
      "Aunt": 5364,
      "Fred": 5365,
      "modif": 5366,
      "handed": 5367,
      "reasoning": 5368,
      "unconscious": 5369,
      "geon": 5370,
      "cloth": 5371,
      "ARTIC": 5372,
      "enjoyed": 5373,
      "conceal": 5374,
      "Tur": 5375,
      "cendent": 5376,
      "tale": 5377,
      "avait": 5378,
      "collect": 5379,
      "secre": 5380,
      "represented": 5381,
      "distinguish": 5382,
      "benefit": 5383,
      "ih": 5384,
      "demons": 5385,
      "merry": 5386,
      "finds": 5387,
      "struggl": 5388,
      "drinking": 5389,
      "furniture": 5390,
      "east": 5391,
      "recon": 5392,
      "selfe": 5393,
      "woke": 5394,
      ".'": 5395,
      "remembr": 5396,
      "shining": 5397,
      "hotel": 5398,
      "psy": 5399,
      "colon": 5400,
      "grav": 5401,
      "Court": 5402,
      "Craw": 5403,
      "ole": 5404,
      "inward": 5405,
      "lections": 5406,
      "stated": 5407,
      "shew": 5408,
      "attitude": 5409,
      "generous": 5410,
      "================================": 5411,
      "conviction": 5412,
      "excitement": 5413,
      "rec": 5414,
      "whist": 5415,
      "lored": 5416,
      "thence": 5417,
      "desert": 5418,
      "oses": 5419,
      "swear": 5420,
      "priori": 5421,
      "Bor": 5422,
      "ium": 5423,
      "rass": 5424,
      "helped": 5425,
      "defend": 5426,
      "Bul": 5427,
      "encounter": 5428,
      "----”": 5429,
      "branch": 5430,
      "Hom": 5431,
      "mate": 5432,
      "contri": 5433,
      "guilty": 5434,
      "avail": 5435,
      "Fa": 5436,
      "rier": 5437,
      "contain": 5438,
      "spark": 5439,
      "incere": 5440,
      "hadn": 5441,
      "ults": 5442,
      "Government": 5443,
      "Hall": 5444,
      "Mad": 5445,
      "crew": 5446,
      "tables": 5447,
      "pole": 5448,
      "owning": 5449,
      "White": 5450,
      "asped": 5451,
      "beard": 5452,
      "roll": 5453,
      "belonged": 5454,
      "gloom": 5455,
      "hypo": 5456,
      "correct": 5457,
      "ram": 5458,
      "west": 5459,
      "deceived": 5460,
      "reduced": 5461,
      "receiving": 5462,
      "eve": 5463,
      "milk": 5464,
      "vanity": 5465,
      "astonished": 5466,
      "Crawford": 5467,
      "Maz": 5468,
      "lust": 5469,
      "tear": 5470,
      "petition": 5471,
      "appetite": 5472,
      "Cad": 5473,
      "Pol": 5474,
      "gutenberg": 5475,
      "lou": 5476,
      "solic": 5477,
      "confined": 5478,
      "awn": 5479,
      "domin": 5480,
      "succession": 5481,
      "tt": 5482,
      "defin": 5483,
      "essor": 5484,
      "Stre": 5485,
      "troubles": 5486,
      "remote": 5487,
      "crates": 5488,
      "Mont": 5489,
      "gown": 5490,
      "reign": 5491,
      "objection": 5492,
      "judic": 5493,
      "entertain": 5494,
      "concluded": 5495,
      "families": 5496,
      "aper": 5497,
      "eating": 5498,
      "thither": 5499,
      "alty": 5500,
      "existed": 5501,
      "extrem": 5502,
      "missed": 5503,
      "impressions": 5504,
      "flew": 5505,
      "fortunes": 5506,
      "www": 5507,
      "Hugh": 5508,
      "weigh": 5509,
      "proposition": 5510,
      "emer": 5511,
      "cries": 5512,
      "Once": 5513,
      "protection": 5514,
      "obtained": 5515,
      "horiz": 5516,
      "beasts": 5517,
      "Sha": 5518,
      "bond": 5519,
      "lately": 5520,
      "races": 5521,
      "uary": 5522,
      "suspect": 5523,
      "staircase": 5524,
      "introduced": 5525,
      "legislat": 5526,
      "embarrass": 5527,
      "boats": 5528,
      "remaining": 5529,
      "Second": 5530,
      "remarks": 5531,
      "depends": 5532,
      "erby": 5533,
      "sprang": 5534,
      "palace": 5535,
      "dancing": 5536,
      "theory": 5537,
      "ented": 5538,
      "waste": 5539,
      "Three": 5540,
      "cloak": 5541,
      "gratitude": 5542,
      "25": 5543,
      "naked": 5544,
      "histori": 5545,
      "slavery": 5546,
      "Jesus": 5547,
      "Dinah": 5548,
      "Other": 5549,
      "toss": 5550,
      "bee": 5551,
      "reflected": 5552,
      "consequences": 5553,
      "Phœ": 5554,
      "gift": 5555,
      "smell": 5556,
      "Dis": 5557,
      "link": 5558,
      "notwithstanding": 5559,
      "Italian": 5560,
      "ckets": 5561,
      "theat": 5562,
      "neat": 5563,
      "posit": 5564,
      "paying": 5565,
      "Indians": 5566,
      "travell": 5567,
      "mingled": 5568,
      "Scot": 5569,
      "sevent": 5570,
      "--”": 5571,
      "base": 5572,
      "renew": 5573,
      "isure": 5574,
      "shill": 5575,
      "destruction": 5576,
      "rail": 5577,
      "ols": 5578,
      "hearted": 5579,
      "relative": 5580,
      "steady": 5581,
      "sleeping": 5582,
      "Judge": 5583,
      "gaze": 5584,
      "multip": 5585,
      "OOK": 5586,
      "Mazarin": 5587,
      "Coun": 5588,
      "HE": 5589,
      "wages": 5590,
      "awk": 5591,
      "Himself": 5592,
      "nonsense": 5593,
      "WI": 5594,
      "flying": 5595,
      "depri": 5596,
      "consol": 5597,
      "examine": 5598,
      "Both": 5599,
      "Harry": 5600,
      "pens": 5601,
      "stared": 5602,
      "extr": 5603,
      "timid": 5604,
      "monarch": 5605,
      "legal": 5606,
      "morality": 5607,
      "Objection": 5608,
      "tied": 5609,
      "pless": 5610,
      "granted": 5611,
      "sixty": 5612,
      "astonishment": 5613,
      "fetch": 5614,
      "Professor": 5615,
      "Dear": 5616,
      "liest": 5617,
      "sages": 5618,
      "!--": 5619,
      "inging": 5620,
      "ules": 5621,
      "holes": 5622,
      "firmed": 5623,
      "begins": 5624,
      "fancied": 5625,
      "Cam": 5626,
      "hint": 5627,
      "narr": 5628,
      "misfortune": 5629,
      "XXX": 5630,
      "preserved": 5631,
      "caution": 5632,
      "stepped": 5633,
      "Neither": 5634,
      "cart": 5635,
      "dar": 5636,
      "page": 5637,
      "assur": 5638,
      "chain": 5639,
      "spected": 5640,
      "ARTICLE": 5641,
      "Dav": 5642,
      "VIII": 5643,
      "leisure": 5644,
      "safety": 5645,
      "Street": 5646,
      "Jose": 5647,
      "empirical": 5648,
      "administr": 5649,
      "poison": 5650,
      "clerk": 5651,
      "Russian": 5652,
      "23": 5653,
      "Fre": 5654,
      "moreover": 5655,
      "ugly": 5656,
      "Most": 5657,
      "Greg": 5658,
      "Luc": 5659,
      "_On": 5660,
      "pent": 5661,
      "sincere": 5662,
      "oute": 5663,
      "refused": 5664,
      "uneasy": 5665,
      "Its": 5666,
      "LET": 5667,
      "dra": 5668,
      "shone": 5669,
      "ques": 5670,
      "judged": 5671,
      "shows": 5672,
      "People": 5673,
      "VE": 5674,
      "pushed": 5675,
      "vary": 5676,
      "chin": 5677,
      "perfor": 5678,
      "affirm": 5679,
      "poverty": 5680,
      "ti": 5681,
      "instit": 5682,
      "inclination": 5683,
      "farmer": 5684,
      "impulse": 5685,
      "Ivan": 5686,
      "Off": 5687,
      "flies": 5688,
      "inconven": 5689,
      "straw": 5690,
      "appeal": 5691,
      "Ange": 5692,
      "approaching": 5693,
      "dir": 5694,
      "lof": 5695,
      "mund": 5696,
      "rated": 5697,
      "ghost": 5698,
      "grant": 5699,
      "defence": 5700,
      "borrow": 5701,
      "indifferent": 5702,
      "Joseph": 5703,
      ",[": 5704,
      "irrit": 5705,
      "Thén": 5706,
      "furnished": 5707,
      "procession": 5708,
      "About": 5709,
      "Thénard": 5710,
      "Cal": 5711,
      "vac": 5712,
      "ads": 5713,
      "folly": 5714,
      "syn": 5715,
      "control": 5716,
      "details": 5717,
      "reputation": 5718,
      "Each": 5719,
      "somehow": 5720,
      "assert": 5721,
      "untary": 5722,
      "cheek": 5723,
      "BOOK": 5724,
      "Med": 5725,
      "echo": 5726,
      "older": 5727,
      "motive": 5728,
      "improvement": 5729,
      "tered": 5730,
      "absent": 5731,
      "grap": 5732,
      "throwing": 5733,
      "limits": 5734,
      "growth": 5735,
      "Port": 5736,
      "grind": 5737,
      "painted": 5738,
      "eleven": 5739,
      "hungry": 5740,
      "Gre": 5741,
      "asy": 5742,
      "vet": 5743,
      "rov": 5744,
      "sheba": 5745,
      "venture": 5746,
      "Chicot": 5747,
      "gust": 5748,
      "muttered": 5749,
      "bye": 5750,
      "patch": 5751,
      "illy": 5752,
      "endure": 5753,
      "passes": 5754,
      "Without": 5755,
      "Among": 5756,
      "umin": 5757,
      "returns": 5758,
      "fighting": 5759,
      "developed": 5760,
      "majority": 5761,
      "wixt": 5762,
      "selfish": 5763,
      "scream": 5764,
      "ATION": 5765,
      "nay": 5766,
      "eason": 5767,
      "Grim": 5768,
      "hastily": 5769,
      "gifts": 5770,
      "Bathsheba": 5771,
      ");": 5772,
      "Bound": 5773,
      "Spain": 5774,
      "landlord": 5775,
      "departure": 5776,
      "eagerly": 5777,
      "Italy": 5778,
      "27": 5779,
      "Civ": 5780,
      "tha": 5781,
      "travel": 5782,
      "precisely": 5783,
      "MAN": 5784,
      "weap": 5785,
      "grounds": 5786,
      "Alas": 5787,
      "Baron": 5788,
      "chor": 5789,
      "flatter": 5790,
      "patri": 5791,
      "disturb": 5792,
      "Jer": 5793,
      "Red": 5794,
      "performed": 5795,
      "embr": 5796,
      "classes": 5797,
      "article": 5798,
      "Rosamond": 5799,
      "Bulstrode": 5800,
      "Harri": 5801,
      "sport": 5802,
      "solitary": 5803,
      "Afri": 5804,
      "vit": 5805,
      "refresh": 5806,
      "upstairs": 5807,
      "affections": 5808,
      "tyr": 5809,
      "Marian": 5810,
      "determine": 5811,
      "prisoners": 5812,
      "iii": 5813,
      "millions": 5814,
      "foun": 5815,
      "notions": 5816,
      "instrument": 5817,
      "folded": 5818,
      "enthus": 5819,
      "pointing": 5820,
      "determination": 5821,
      "distinctly": 5822,
      "picked": 5823,
      "recover": 5824,
      "ulties": 5825,
      "ridicul": 5826,
      "slightly": 5827,
      "hitherto": 5828,
      "magnificent": 5829,
      "Cont": 5830,
      "Mur": 5831,
      "rang": 5832,
      "seriously": 5833,
      "Section": 5834,
      "Marianne": 5835,
      "thine": 5836,
      "perple": 5837,
      "ette": 5838,
      "appreci": 5839,
      "protest": 5840,
      "acting": 5841,
      "conclude": 5842,
      "GH": 5843,
      "Min": 5844,
      "swell": 5845,
      "recovered": 5846,
      "idle": 5847,
      "usions": 5848,
      "ornament": 5849,
      "await": 5850,
      "uttering": 5851,
      "Roy": 5852,
      "debt": 5853,
      "obscure": 5854,
      "inasmuch": 5855,
      "exchange": 5856,
      "forever": 5857,
      "Although": 5858,
      "Grand": 5859,
      "Mitch": 5860,
      "Rob": 5861,
      "metal": 5862,
      "valid": 5863,
      "holds": 5864,
      "exceedingly": 5865,
      "26": 5866,
      "Bal": 5867,
      "vering": 5868,
      "fears": 5869,
      "overcome": 5870,
      "nurse": 5871,
      "lofty": 5872,
      "Bra": 5873,
      "Ear": 5874,
      "PRO": 5875,
      "dared": 5876,
      "Pray": 5877,
      "thread": 5878,
      "transcendent": 5879,
      "horizon": 5880,
      "28": 5881,
      "Lic": 5882,
      "enlight": 5883,
      "weed": 5884,
      "changing": 5885,
      "cognition": 5886,
      "daughters": 5887,
      "distribution": 5888,
      "knocked": 5889,
      "remembrance": 5890,
      "ifying": 5891,
      "exposed": 5892,
      "scorn": 5893,
      "lieu": 5894,
      "wrought": 5895,
      "towns": 5896,
      "heed": 5897,
      "sunshine": 5898,
      "risk": 5899,
      "lantern": 5900,
      "Harriet": 5901,
      "anche": 5902,
      "enjoyment": 5903,
      "simplicity": 5904,
      "prepare": 5905,
      "Author": 5906,
      "dain": 5907,
      "zing": 5908,
      "instances": 5909,
      "elements": 5910,
      "ael": 5911,
      "thew": 5912,
      "sust": 5913,
      "ifies": 5914,
      "Out": 5915,
      "remove": 5916,
      "sip": 5917,
      "rug": 5918,
      "empire": 5919,
      "commanded": 5920,
      "description": 5921,
      "Hurry": 5922,
      "sofa": 5923,
      "Mitchy": 5924,
      "pup": 5925,
      "insp": 5926,
      "ural": 5927,
      "brings": 5928,
      "lessness": 5929,
      "enormous": 5930,
      "Copper": 5931,
      "Sc": 5932,
      "ua": 5933,
      "idents": 5934,
      "forces": 5935,
      "sus": 5936,
      "sob": 5937,
      "pressing": 5938,
      "faculties": 5939,
      "repeat": 5940,
      "License": 5941,
      "Sol": 5942,
      "range": 5943,
      "barbar": 5944,
      "copies": 5945,
      "substances": 5946,
      "waves": 5947,
      "Matthew": 5948,
      "ocean": 5949,
      "rele": 5950,
      "coarse": 5951,
      "tells": 5952,
      "check": 5953,
      "ucket": 5954,
      "midnight": 5955,
      "prayers": 5956,
      "stayed": 5957,
      "Everything": 5958,
      "victory": 5959,
      "vulgar": 5960,
      "pace": 5961,
      "tering": 5962,
      "subl": 5963,
      "plate": 5964,
      "signific": 5965,
      "Edmund": 5966,
      "CO": 5967,
      "Ri": 5968,
      "ands": 5969,
      "wol": 5970,
      "wooden": 5971,
      "departed": 5972,
      "voc": 5973,
      "examination": 5974,
      "movements": 5975,
      "remed": 5976,
      "mood": 5977,
      "tendency": 5978,
      "resemblance": 5979,
      "sugar": 5980,
      "ams": 5981,
      "export": 5982,
      "betwixt": 5983,
      "troops": 5984,
      "beaten": 5985,
      "apartment": 5986,
      "condemned": 5987,
      "compelled": 5988,
      "oy": 5989,
      "rag": 5990,
      "iddy": 5991,
      "suspected": 5992,
      "shri": 5993,
      "type": 5994,
      "feels": 5995,
      "judges": 5996,
      "doubtless": 5997,
      "RA": 5998,
      "faced": 5999,
      "conceived": 6000,
      "roads": 6001,
      "unning": 6002,
      "plants": 6003,
      "development": 6004,
      "lap": 6005,
      "nt": 6006,
      "invisible": 6007,
      "oping": 6008,
      "sentiments": 6009,
      "scrup": 6010,
      "basket": 6011,
      "citizen": 6012,
      "Duke": 6013,
      "Bounderby": 6014,
      "úz": 6015,
      "staff": 6016,
      "veget": 6017,
      "sensit": 6018,
      "flag": 6019,
      "queer": 6020,
      "apping": 6021,
      "provin": 6022,
      "population": 6023,
      "gor": 6024,
      "parent": 6025,
      "inquire": 6026,
      "capacity": 6027,
      "intervals": 6028,
      "glorious": 6029,
      "Hon": 6030,
      "Kut": 6031,
      "bla": 6032,
      "artific": 6033,
      "coin": 6034,
      "_I_": 6035,
      "tight": 6036,
      "prophe": 6037,
      "opposition": 6038,
      "begged": 6039,
      "dram": 6040,
      "assumed": 6041,
      "indifference": 6042,
      "eternity": 6043,
      "Lat": 6044,
      "cio": 6045,
      "bodily": 6046,
      "princess": 6047,
      "proceeds": 6048,
      "deserted": 6049,
      "application": 6050,
      "performan": 6051,
      "Copperfield": 6052,
      "nearest": 6053,
      "easiness": 6054,
      "pretend": 6055,
      "brothers": 6056,
      "establishment": 6057,
      "--------": 6058,
      "commerce": 6059,
      "arrive": 6060,
      "affli": 6061,
      "desperate": 6062,
      "cattle": 6063,
      "managed": 6064,
      "trace": 6065,
      "scattered": 6066,
      "Aristo": 6067,
      "increasing": 6068,
      "earnestly": 6069,
      "mutual": 6070,
      "Accord": 6071,
      "Thénardier": 6072,
      "jun": 6073,
      "oped": 6074,
      "republic": 6075,
      "visited": 6076,
      "Beth": 6077,
      "maintained": 6078,
      "neighbourhood": 6079,
      "eggs": 6080,
      "úzov": 6081,
      "Kutúzov": 6082,
      "ibly": 6083,
      "Wherefore": 6084,
      "Ce": 6085,
      "Gent": 6086,
      "sadd": 6087,
      "lles": 6088,
      "exert": 6089,
      "trait": 6090,
      "commen": 6091,
      "oppress": 6092,
      "opposed": 6093,
      "buck": 6094,
      "produces": 6095,
      "poetry": 6096,
      "tenderness": 6097,
      "Duchess": 6098,
      "Vander": 6099,
      "mber": 6100,
      "seed": 6101,
      "stout": 6102,
      "bou": 6103,
      "marble": 6104,
      "respects": 6105,
      "taxes": 6106,
      "anticip": 6107,
      "Moreover": 6108,
      "victim": 6109,
      "AD": 6110,
      "Bishop": 6111,
      "itating": 6112,
      "flow": 6113,
      "enses": 6114,
      "ski": 6115,
      "wishing": 6116,
      "persuaded": 6117,
      "Ahab": 6118,
      "sins": 6119,
      "enn": 6120,
      "verted": 6121,
      "roar": 6122,
      "poly": 6123,
      "commit": 6124,
      "supposing": 6125,
      "enger": 6126,
      "gypt": 6127,
      "banks": 6128,
      "depths": 6129,
      "valuable": 6130,
      "cottage": 6131,
      "Spar": 6132,
      "shal": 6133,
      "disgrace": 6134,
      "governor": 6135,
      "True": 6136,
      "devotion": 6137,
      "Vanderbank": 6138,
      "itute": 6139,
      "awak": 6140,
      "Peter": 6141,
      "clergy": 6142,
      "magistrate": 6143,
      "atmo": 6144,
      "advis": 6145,
      "agues": 6146,
      "clam": 6147,
      "rightly": 6148,
      "internal": 6149,
      "fathers": 6150,
      "appearing": 6151,
      "invited": 6152,
      "perform": 6153,
      "savages": 6154,
      "Egypt": 6155,
      "publ": 6156,
      "feeble": 6157,
      "revenge": 6158,
      "Syme": 6159,
      "Love": 6160,
      "Say": 6161,
      "fain": 6162,
      "mast": 6163,
      "injustice": 6164,
      "bel": 6165,
      "mechan": 6166,
      "riel": 6167,
      "odo": 6168,
      "charity": 6169,
      "countess": 6170,
      "silk": 6171,
      "ceiving": 6172,
      "elsewhere": 6173,
      "iency": 6174,
      "wherever": 6175,
      "headed": 6176,
      "certainty": 6177,
      "privile": 6178,
      "arises": 6179,
      "vanished": 6180,
      "consult": 6181,
      "purchase": 6182,
      "furious": 6183,
      "nig": 6184,
      "outward": 6185,
      "frank": 6186,
      "earthly": 6187,
      "Sen": 6188,
      "lament": 6189,
      "pave": 6190,
      "adise": 6191,
      "mead": 6192,
      "lightning": 6193,
      "Does": 6194,
      "declare": 6195,
      "Brooke": 6196,
      "Illust": 6197,
      "leaf": 6198,
      "icing": 6199,
      "usive": 6200,
      "manage": 6201,
      "longed": 6202,
      "decision": 6203,
      "Fer": 6204,
      "wake": 6205,
      "sey": 6206,
      "nervous": 6207,
      "visitor": 6208,
      "Admir": 6209,
      "ovna": 6210,
      "Lucy": 6211,
      "arguments": 6212,
      "communication": 6213,
      "29": 6214,
      "Lor": 6215,
      "kin": 6216,
      "dost": 6217,
      "marks": 6218,
      "lawyer": 6219,
      "Dora": 6220,
      "Life": 6221,
      "schol": 6222,
      "Flo": 6223,
      "Jar": 6224,
      "RAN": 6225,
      "stal": 6226,
      "uneasiness": 6227,
      "plans": 6228,
      "graph": 6229,
      "elf": 6230,
      "maxim": 6231,
      "contrast": 6232,
      "gesture": 6233,
      "additional": 6234,
      "merchant": 6235,
      "satisfy": 6236,
      "Fort": 6237,
      "eries": 6238,
      "total": 6239,
      "beloved": 6240,
      "--“": 6241,
      "positive": 6242,
      "region": 6243,
      "respectable": 6244,
      "Traddles": 6245,
      "afore": 6246,
      "bows": 6247,
      "gare": 6248,
      "ote": 6249,
      "caval": 6250,
      "contact": 6251,
      "princes": 6252,
      "steep": 6253,
      "Il": 6254,
      "Ru": 6255,
      "Sal": 6256,
      "pper": 6257,
      "vid": 6258,
      "reject": 6259,
      "abrupt": 6260,
      "activity": 6261,
      "refund": 6262,
      "trusted": 6263,
      "Majesty": 6264,
      "gates": 6265,
      "staring": 6266,
      "saith": 6267,
      "strain": 6268,
      "Socrates": 6269,
      "Uncle": 6270,
      "eighteen": 6271,
      "European": 6272,
      "adj": 6273,
      "Longdon": 6274,
      "Ros": 6275,
      "Reason": 6276,
      "cam": 6277,
      "stam": 6278,
      "repent": 6279,
      "steam": 6280,
      "avert": 6281,
      "ridiculous": 6282,
      "Isa": 6283,
      "oak": 6284,
      "sank": 6285,
      "dete": 6286,
      "enterpr": 6287,
      "riding": 6288,
      "ridge": 6289,
      "element": 6290,
      "sailors": 6291,
      "protected": 6292,
      "machine": 6293,
      "folks": 6294,
      "Faith": 6295,
      "knee": 6296,
      "duration": 6297,
      "jumped": 6298,
      "nie": 6299,
      "ultim": 6300,
      "stories": 6301,
      "effic": 6302,
      "chimney": 6303,
      "feathers": 6304,
      "resh": 6305,
      "tories": 6306,
      "resour": 6307,
      "wilder": 6308,
      "results": 6309,
      "intelligent": 6310,
      "sensitive": 6311,
      "dissol": 6312,
      "collection": 6313,
      "fastened": 6314,
      "establish": 6315,
      "treasure": 6316,
      "dirty": 6317,
      "mart": 6318,
      "anno": 6319,
      "novel": 6320,
      "ceas": 6321,
      "owe": 6322,
      "exhibit": 6323,
      "compassion": 6324,
      "bler": 6325,
      "newsp": 6326,
      "regarding": 6327,
      "representation": 6328,
      "guns": 6329,
      "Vol": 6330,
      "date": 6331,
      "liable": 6332,
      "standard": 6333,
      "pleasing": 6334,
      "ruined": 6335,
      "aval": 6336,
      "federal": 6337,
      "adventure": 6338,
      "Mac": 6339,
      "WAR": 6340,
      "coff": 6341,
      "pig": 6342,
      "tomorrow": 6343,
      "sober": 6344,
      "Heath": 6345,
      "version": 6346,
      "ESS": 6347,
      "porter": 6348,
      "ambition": 6349,
      "vine": 6350,
      "rib": 6351,
      "det": 6352,
      "regiment": 6353,
      "speaks": 6354,
      "gam": 6355,
      "hit": 6356,
      "plun": 6357,
      "leaned": 6358,
      "slipped": 6359,
      "Ni": 6360,
      "sable": 6361,
      "conject": 6362,
      "ieux": 6363,
      "strangers": 6364,
      "shaw": 6365,
      "transport": 6366,
      "chapter": 6367,
      "wandering": 6368,
      "problem": 6369,
      "Agn": 6370,
      "Knight": 6371,
      "anks": 6372,
      "oms": 6373,
      "itty": 6374,
      "torn": 6375,
      "fearful": 6376,
      "linen": 6377,
      "prevented": 6378,
      "hunger": 6379,
      "City": 6380,
      "PR": 6381,
      "bay": 6382,
      "nic": 6383,
      "era": 6384,
      "rival": 6385,
      "distri": 6386,
      "observing": 6387,
      "deeper": 6388,
      "flung": 6389,
      "Alan": 6390,
      "flood": 6391,
      "dressing": 6392,
      "philosoph": 6393,
      "Clar": 6394,
      "cities": 6395,
      "radi": 6396,
      "wilt": 6397,
      "ider": 6398,
      "oung": 6399,
      "disgu": 6400,
      "resting": 6401,
      "Leices": 6402,
      "groan": 6403,
      "describe": 6404,
      "preceding": 6405,
      "attributed": 6406,
      "Tru": 6407,
      "oath": 6408,
      "aps": 6409,
      "prey": 6410,
      "partial": 6411,
      "discussion": 6412,
      "hideous": 6413,
      "prudence": 6414,
      "printed": 6415,
      "Bou": 6416,
      "flame": 6417,
      "eties": 6418,
      "Frank": 6419,
      "dict": 6420,
      "Scripture": 6421,
      "lam": 6422,
      "ascertain": 6423,
      "smallest": 6424,
      "Being": 6425,
      "puzz": 6426,
      "protect": 6427,
      "pest": 6428,
      "ware": 6429,
      "hem": 6430,
      "heav": 6431,
      "conform": 6432,
      "display": 6433,
      "void": 6434,
      "mathem": 6435,
      "winds": 6436,
      "production": 6437,
      "accordance": 6438,
      "obvious": 6439,
      "soften": 6440,
      "——": 6441,
      "chose": 6442,
      "whir": 6443,
      "posal": 6444,
      "comprehend": 6445,
      "depth": 6446,
      "pronounced": 6447,
      "Leicester": 6448,
      "eous": 6449,
      "referred": 6450,
      "intense": 6451,
      "merc": 6452,
      "ladder": 6453,
      "pretended": 6454,
      "altered": 6455,
      "canoe": 6456,
      "administration": 6457,
      "eloqu": 6458,
      "itudes": 6459,
      "wills": 6460,
      "brows": 6461,
      "inton": 6462,
      "courts": 6463,
      "swept": 6464,
      "fires": 6465,
      "CI": 6466,
      "Fau": 6467,
      "limbs": 6468,
      "supported": 6469,
      "Virgin": 6470,
      "uct": 6471,
      "shire": 6472,
      "equality": 6473,
      "deeds": 6474,
      "revolution": 6475,
      ".[": 6476,
      "DI": 6477,
      "iring": 6478,
      "usal": 6479,
      "mischief": 6480,
      "probability": 6481,
      "shock": 6482,
      "wondering": 6483,
      "Americans": 6484,
      "trembled": 6485,
      "AB": 6486,
      "hated": 6487,
      "sions": 6488,
      "tar": 6489,
      "uge": 6490,
      "meal": 6491,
      "187": 6492,
      "abandoned": 6493,
      "eBooks": 6494,
      "David": 6495,
      ",'": 6496,
      "Jan": 6497,
      "likes": 6498,
      "operations": 6499,
      "pursuit": 6500,
      "horns": 6501,
      "transcendental": 6502,
      "Heathcliff": 6503,
      "Bha": 6504,
      "Duc": 6505,
      "Ter": 6506,
      "Wind": 6507,
      "batt": 6508,
      "uity": 6509,
      "enes": 6510,
      "iting": 6511,
      "seam": 6512,
      "nois": 6513,
      "acknowledge": 6514,
      "washed": 6515,
      "Providence": 6516,
      "Illustration": 6517,
      "Cong": 6518,
      "sov": 6519,
      "tomb": 6520,
      "gazing": 6521,
      "articles": 6522,
      "Clare": 6523,
      "legislative": 6524,
      "Jarnd": 6525,
      "Mart": 6526,
      "_you": 6527,
      "kho": 6528,
      "liament": 6529,
      "agitation": 6530,
      "announced": 6531,
      "Poy": 6532,
      "substant": 6533,
      "abandon": 6534,
      "darling": 6535,
      "jaw": 6536,
      "ico": 6537,
      "cave": 6538,
      "parting": 6539,
      "distributing": 6540,
      "neglect": 6541,
      "Jarndyce": 6542,
      "Poyser": 6543,
      "Bur": 6544,
      "Cath": 6545,
      "ka": 6546,
      "someone": 6547,
      "gracious": 6548,
      "collected": 6549,
      "incident": 6550,
      "diam": 6551,
      "humour": 6552,
      "proceeding": 6553,
      "Caes": 6554,
      "discipl": 6555,
      "Agnes": 6556,
      "gig": 6557,
      "cheon": 6558,
      "restri": 6559,
      "reaching": 6560,
      "firmly": 6561,
      "polite": 6562,
      "Four": 6563,
      "dess": 6564,
      "disagreeable": 6565,
      "spake": 6566,
      "hib": 6567,
      "Romans": 6568,
      "Fin": 6569,
      "Mich": 6570,
      "torted": 6571,
      "keeps": 6572,
      "thousands": 6573,
      "atmosphere": 6574,
      "vre": 6575,
      "islands": 6576,
      "wives": 6577,
      "definite": 6578,
      "quel": 6579,
      "stopping": 6580,
      "natures": 6581,
      "appropri": 6582,
      "included": 6583,
      "motionless": 6584,
      "Gab": 6585,
      "Pat": 6586,
      "papa": 6587,
      "soo": 6588,
      "aments": 6589,
      "colle": 6590,
      "grandfather": 6591,
      "admirable": 6592,
      "sighed": 6593,
      "accomplished": 6594,
      "repose": 6595,
      "liqu": 6596,
      "shirt": 6597,
      "elly": 6598,
      "discour": 6599,
      "throne": 6600,
      "lasting": 6601,
      "sixteen": 6602,
      "burg": 6603,
      "investig": 6604,
      "cretion": 6605,
      "absorbed": 6606,
      "Nanda": 6607,
      "outer": 6608,
      "bears": 6609,
      "feast": 6610,
      "artist": 6611,
      "puts": 6612,
      "silently": 6613,
      "annual": 6614,
      "addressing": 6615,
      "rarely": 6616,
      "Sn": 6617,
      "Wal": 6618,
      "dart": 6619,
      "yonder": 6620,
      "sensu": 6621,
      "ubb": 6622,
      "cheap": 6623,
      "centuries": 6624,
      "chester": 6625,
      "blessing": 6626,
      "frightful": 6627,
      "distributed": 6628,
      "guests": 6629,
      "today": 6630,
      "prodig": 6631,
      "inking": 6632,
      "offence": 6633,
      "comply": 6634,
      "lowest": 6635,
      "walks": 6636,
      "chairs": 6637,
      "obligation": 6638,
      "extension": 6639,
      "diamond": 6640,
      "Young": 6641,
      "ingo": 6642,
      "contains": 6643,
      "pockets": 6644,
      "submit": 6645,
      "vote": 6646,
      "poets": 6647,
      "orse": 6648,
      "imony": 6649,
      "libr": 6650,
      "deli": 6651,
      "daylight": 6652,
      "sailor": 6653,
      "Creat": 6654,
      "Hal": 6655,
      "pitch": 6656,
      "willingly": 6657,
      "lical": 6658,
      "customs": 6659,
      "neighbours": 6660,
      "favourite": 6661,
      "relieved": 6662,
      "Philosopher": 6663,
      "East": 6664,
      "jur": 6665,
      "suitable": 6666,
      "abled": 6667,
      "emplo": 6668,
      "exhausted": 6669,
      "Dem": 6670,
      "Str": 6671,
      "recall": 6672,
      "ulate": 6673,
      "desol": 6674,
      "statement": 6675,
      "India": 6676,
      "colonies": 6677,
      "Has": 6678,
      "consp": 6679,
      "illes": 6680,
      "Whatever": 6681,
      "justly": 6682,
      "parish": 6683,
      "confident": 6684,
      "injury": 6685,
      "obeyed": 6686,
      "prosperity": 6687,
      "Fare": 6688,
      "Vic": 6689,
      "offee": 6690,
      "imposed": 6691,
      "drank": 6692,
      "doubtful": 6693,
      "Bhaer": 6694,
      "Javert": 6695,
      "Ra": 6696,
      "pine": 6697,
      "ayed": 6698,
      "whither": 6699,
      "cock": 6700,
      "Through": 6701,
      "lav": 6702,
      "inse": 6703,
      "unted": 6704,
      "whip": 6705,
      "sheet": 6706,
      "Hep": 6707,
      "disappointed": 6708,
      "blows": 6709,
      "archite": 6710,
      "nya": 6711,
      "Merdle": 6712,
      "NOT": 6713,
      "revealed": 6714,
      "restored": 6715,
      "awkward": 6716,
      "War": 6717,
      "lion": 6718,
      "lonely": 6719,
      "sang": 6720,
      "thetic": 6721,
      "saving": 6722,
      "glow": 6723,
      "phant": 6724,
      "understands": 6725,
      "recognize": 6726,
      "Gabriel": 6727,
      "Moses": 6728,
      "San": 6729,
      "gal": 6730,
      "honey": 6731,
      "tles": 6732,
      "geance": 6733,
      "torment": 6734,
      "easier": 6735,
      "helpless": 6736,
      "structure": 6737,
      "Pancks": 6738,
      "IM": 6739,
      "bind": 6740,
      "mou": 6741,
      "tide": 6742,
      "”—": 6743,
      "riages": 6744,
      "therein": 6745,
      "dining": 6746,
      "burned": 6747,
      "Só": 6748,
      "cunning": 6749,
      "poured": 6750,
      "hee": 6751,
      "agin": 6752,
      "dol": 6753,
      "particulars": 6754,
      "politics": 6755,
      "recollect": 6756,
      "permanent": 6757,
      "Ba": 6758,
      "mand": 6759,
      "pil": 6760,
      "thic": 6761,
      "chop": 6762,
      "provision": 6763,
      "irect": 6764,
      "shouldn": 6765,
      "atively": 6766,
      "moderate": 6767,
      "Sónya": 6768,
      "——”": 6769,
      "antry": 6770,
      "riches": 6771,
      "counted": 6772,
      "household": 6773,
      "purple": 6774,
      "extend": 6775,
      "governments": 6776,
      "coward": 6777,
      "HAM": 6778,
      "bund": 6779,
      "oo": 6780,
      "sending": 6781,
      "upright": 6782,
      "heartily": 6783,
      "purposes": 6784,
      "apprehension": 6785,
      "beating": 6786,
      "urged": 6787,
      "disappointment": 6788,
      "medic": 6789,
      "untarily": 6790,
      "utenant": 6791,
      "tower": 6792,
      "admired": 6793,
      "profits": 6794,
      "persuade": 6795,
      "Bucket": 6796,
      "sque": 6797,
      "eration": 6798,
      "tot": 6799,
      "stable": 6800,
      "agles": 6801,
      "colored": 6802,
      "Christmas": 6803,
      "provisions": 6804,
      "admire": 6805,
      "measures": 6806,
      "40": 6807,
      "Winter": 6808,
      "sire": 6809,
      "zib": 6810,
      "amiable": 6811,
      "accompany": 6812,
      "caut": 6813,
      "rows": 6814,
      "engagement": 6815,
      "commander": 6816,
      "explo": 6817,
      "convenient": 6818,
      "infli": 6819,
      "Weston": 6820,
      "Admiral": 6821,
      "khov": 6822,
      "zibah": 6823,
      "Dun": 6824,
      "bark": 6825,
      "fant": 6826,
      "rud": 6827,
      "ón": 6828,
      "whit": 6829,
      "sounded": 6830,
      "drops": 6831,
      "leads": 6832,
      "OUR": 6833,
      "occupation": 6834,
      "predic": 6835,
      "bestowed": 6836,
      "Hepzibah": 6837,
      "confirmed": 6838,
      "formal": 6839,
      "expectation": 6840,
      "sequently": 6841,
      "harsh": 6842,
      "Mean": 6843,
      "previously": 6844,
      "restrain": 6845,
      "shillings": 6846,
      "Know": 6847,
      "Were": 6848,
      "damp": 6849,
      "gory": 6850,
      "composition": 6851,
      "teau": 6852,
      "hore": 6853,
      "corpor": 6854,
      "baron": 6855,
      "driving": 6856,
      "sublime": 6857,
      "Hu": 6858,
      "Pip": 6859,
      "bun": 6860,
      "fow": 6861,
      "rath": 6862,
      "handle": 6863,
      "Gods": 6864,
      "THER": 6865,
      "purse": 6866,
      "spectacle": 6867,
      "hunting": 6868,
      "reserved": 6869,
      "Oak": 6870,
      "asion": 6871,
      "unusual": 6872,
      "wearing": 6873,
      "urity": 6874,
      "feed": 6875,
      "righteous": 6876,
      "portions": 6877,
      "signify": 6878,
      "bloom": 6879,
      "organs": 6880,
      "eaten": 6881,
      "innocence": 6882,
      "_you_": 6883,
      "whel": 6884,
      "rolling": 6885,
      "stomach": 6886,
      "honourable": 6887,
      "Middle": 6888,
      "Grimaud": 6889,
      "_Ex": 6890,
      "knot": 6891,
      "pg": 6892,
      "healthy": 6893,
      "unlike": 6894,
      "tribe": 6895,
      "humility": 6896,
      "leness": 6897,
      "deserve": 6898,
      "superiority": 6899,
      "BER": 6900,
      "Res": 6901,
      "lac": 6902,
      "mun": 6903,
      "vivid": 6904,
      "ounded": 6905,
      "ceptible": 6906,
      "beds": 6907,
      "civilization": 6908,
      "Next": 6909,
      "coffee": 6910,
      "ísov": 6911,
      "retain": 6912,
      "images": 6913,
      "monster": 6914,
      "licy": 6915,
      "volun": 6916,
      "bells": 6917,
      "Paul": 6918,
      "widow": 6919,
      "’,": 6920,
      "ensu": 6921,
      "dearest": 6922,
      "mol": 6923,
      "illness": 6924,
      "hereafter": 6925,
      "disease": 6926,
      "risen": 6927,
      "limit": 6928,
      "potent": 6929,
      "prudent": 6930,
      "arrangement": 6931,
      "Denísov": 6932,
      "Collin": 6933,
      "celebrated": 6934,
      "secrets": 6935,
      "Happ": 6936,
      "LO": 6937,
      "NE": 6938,
      "dawn": 6939,
      "fitted": 6940,
      "inch": 6941,
      "planted": 6942,
      "asser": 6943,
      "monk": 6944,
      "phan": 6945,
      "joke": 6946,
      "examining": 6947,
      "Darcy": 6948,
      "Alexander": 6949,
      "heavily": 6950,
      "Ang": 6951,
      "Def": 6952,
      "SH": 6953,
      "based": 6954,
      "preferred": 6955,
      "Soci": 6956,
      "....”": 6957,
      "accounts": 6958,
      "cel": 6959,
      "cette": 6960,
      "improved": 6961,
      "ills": 6962,
      "greatness": 6963,
      "udge": 6964,
      "desk": 6965,
      "cutting": 6966,
      "expenses": 6967,
      "Justice": 6968,
      "knock": 6969,
      "cultivated": 6970,
      "viv": 6971,
      "isher": 6972,
      "assa": 6973,
      "haz": 6974,
      "deer": 6975,
      "wholes": 6976,
      "brook": 6977,
      "commission": 6978,
      "Death": 6979,
      "END": 6980,
      "connex": 6981,
      "critic": 6982,
      "conquer": 6983,
      "angled": 6984,
      "adopted": 6985,
      "21": 6986,
      "Place": 6987,
      "poster": 6988,
      "earlier": 6989,
      "trick": 6990,
      "doubts": 6991,
      "Dorian": 6992,
      "Brut": 6993,
      "Bag": 6994,
      "cough": 6995,
      "uine": 6996,
      "itz": 6997,
      "warning": 6998,
      "acquire": 6999,
      "genus": 7000,
      "attempted": 7001,
      "materials": 7002,
      "scient": 7003,
      "cured": 7004,
      "job": 7005,
      "los": 7006,
      "solitude": 7007,
      "summon": 7008,
      "crossing": 7009,
      "Louisa": 7010,
      "Bible": 7011,
      "dre": 7012,
      "punish": 7013,
      "Small": 7014,
      "dome": 7015,
      "weeping": 7016,
      "plac": 7017,
      "scale": 7018,
      "expecting": 7019,
      "decide": 7020,
      "successful": 7021,
      "resolute": 7022,
      "fortunately": 7023,
      "heels": 7024,
      "bushes": 7025,
      "Latin": 7026,
      "Cons": 7027,
      "aus": 7028,
      "jury": 7029,
      "ador": 7030,
      "poon": 7031,
      "silly": 7032,
      "xture": 7033,
      "Christianity": 7034,
      "convention": 7035,
      "Tit": 7036,
      "rings": 7037,
      "ero": 7038,
      "rily": 7039,
      "agony": 7040,
      "gram": 7041,
      "viz": 7042,
      "services": 7043,
      "bench": 7044,
      "Saviour": 7045,
      "pence": 7046,
      "inner": 7047,
      "inches": 7048,
      "utch": 7049,
      "presu": 7050,
      "partner": 7051,
      "happily": 7052,
      "Clara": 7053,
      "dat": 7054,
      "emotions": 7055,
      "jail": 7056,
      "snat": 7057,
      "containing": 7058,
      "erect": 7059,
      "Grad": 7060,
      "compliment": 7061,
      "erousse": 7062,
      "breathing": 7063,
      "propriety": 7064,
      "Caderousse": 7065,
      "PO": 7066,
      "xx": 7067,
      "thet": 7068,
      "anting": 7069,
      "plat": 7070,
      "subtle": 7071,
      "audience": 7072,
      "behaviour": 7073,
      "recommend": 7074,
      "PAR": 7075,
      "deceive": 7076,
      "cope": 7077,
      "survey": 7078,
      "ctors": 7079,
      "swim": 7080,
      "Aristotle": 7081,
      "slee": 7082,
      "signal": 7083,
      "tracted": 7084,
      "dragged": 7085,
      "experiment": 7086,
      "acknowledged": 7087,
      "pavement": 7088,
      "Ded": 7089,
      "fury": 7090,
      "assum": 7091,
      "negro": 7092,
      "gos": 7093,
      "boast": 7094,
      "marve": 7095,
      "virtuous": 7096,
      "gardens": 7097,
      "assume": 7098,
      "funeral": 7099,
      "scheme": 7100,
      "privilege": 7101,
      "Gi": 7102,
      "Nob": 7103,
      "kins": 7104,
      "wrath": 7105,
      "imperfect": 7106,
      "ranks": 7107,
      "Something": 7108,
      "crept": 7109,
      "Planche": 7110,
      "_that": 7111,
      "load": 7112,
      "interrupt": 7113,
      "runs": 7114,
      "governed": 7115,
      "physician": 7116,
      "library": 7117,
      "Bas": 7118,
      "bone": 7119,
      "fought": 7120,
      "vex": 7121,
      "quity": 7122,
      "peril": 7123,
      "monstrous": 7124,
      "Elt": 7125,
      "nigh": 7126,
      "vices": 7127,
      "enable": 7128,
      "policy": 7129,
      "license": 7130,
      "generations": 7131,
      "directions": 7132,
      "promin": 7133,
      "Ada": 7134,
      "elev": 7135,
      "favourable": 7136,
      "inherit": 7137,
      "indignation": 7138,
      "Av": 7139,
      "Ali": 7140,
      "Ke": 7141,
      "Pre": 7142,
      "craw": 7143,
      "fest": 7144,
      "fax": 7145,
      "offices": 7146,
      "seeming": 7147,
      "presents": 7148,
      "finish": 7149,
      "sciences": 7150,
      "definition": 7151,
      "33": 7152,
      "Mal": 7153,
      "XI": 7154,
      "bishop": 7155,
      "mock": 7156,
      "achie": 7157,
      "badly": 7158,
      "safely": 7159,
      "meantime": 7160,
      "Hester": 7161,
      "mates": 7162,
      "oil": 7163,
      "cake": 7164,
      "barric": 7165,
      "murmur": 7166,
      "tiny": 7167,
      "assurance": 7168,
      "fountain": 7169,
      "Could": 7170,
      "bust": 7171,
      "inations": 7172,
      "adorn": 7173,
      "weep": 7174,
      "losing": 7175,
      "propose": 7176,
      "temple": 7177,
      "confli": 7178,
      "treatment": 7179,
      "superst": 7180,
      "balance": 7181,
      "alarmed": 7182,
      "craft": 7183,
      "lucky": 7184,
      "Linton": 7185,
      "unwilling": 7186,
      "ements": 7187,
      "aks": 7188,
      "fifth": 7189,
      "potential": 7190,
      "million": 7191,
      "stirred": 7192,
      "proprie": 7193,
      "Planchet": 7194,
      "ET": 7195,
      "FIR": 7196,
      "gul": 7197,
      "wars": 7198,
      "permit": 7199,
      "club": 7200,
      "avag": 7201,
      "genuine": 7202,
      "perpetual": 7203,
      "discern": 7204,
      "wax": 7205,
      "quoth": 7206,
      "letting": 7207,
      "augment": 7208,
      "intercourse": 7209,
      "supposition": 7210,
      "penny": 7211,
      "hinder": 7212,
      "grande": 7213,
      "message": 7214,
      "reverence": 7215,
      "wedding": 7216,
      "dispute": 7217,
      "Pyn": 7218,
      "ora": 7219,
      "incred": 7220,
      "moonlight": 7221,
      "institutions": 7222,
      "VER": 7223,
      "bred": 7224,
      "rea": 7225,
      "sets": 7226,
      "advers": 7227,
      "fron": 7228,
      "fairy": 7229,
      "patron": 7230,
      "originally": 7231,
      "Sonia": 7232,
      "elegant": 7233,
      "ECT": 7234,
      "Su": 7235,
      "Sud": 7236,
      "Wick": 7237,
      "wretch": 7238,
      "deaf": 7239,
      "cible": 7240,
      "relate": 7241,
      "Secondly": 7242,
      "Sto": 7243,
      "rors": 7244,
      "toil": 7245,
      "confirm": 7246,
      "resent": 7247,
      "comput": 7248,
      "excellency": 7249,
      "bonnet": 7250,
      "criminal": 7251,
      "Steer": 7252,
      "intimate": 7253,
      "folk": 7254,
      "annoy": 7255,
      "Eh": 7256,
      "Hy": 7257,
      "gue": 7258,
      "ox": 7259,
      "cris": 7260,
      "sunk": 7261,
      "steel": 7262,
      "temptation": 7263,
      "driver": 7264,
      "slightest": 7265,
      "Cham": 7266,
      "vengeance": 7267,
      "cleared": 7268,
      "adding": 7269,
      "curtain": 7270,
      "motives": 7271,
      "teaching": 7272,
      "Steerforth": 7273,
      "Bumble": 7274,
      "overwhel": 7275,
      "smart": 7276,
      "producing": 7277,
      "warri": 7278,
      "conducted": 7279,
      "Presently": 7280,
      "Mess": 7281,
      "cared": 7282,
      "wander": 7283,
      "exquisite": 7284,
      "umes": 7285,
      "afterward": 7286,
      "institution": 7287,
      "gging": 7288,
      "crowded": 7289,
      "extensive": 7290,
      "Satur": 7291,
      "abundance": 7292,
      "assent": 7293,
      "intend": 7294,
      "interior": 7295,
      "Stubb": 7296,
      "satisfactory": 7297,
      "strangely": 7298,
      "harmony": 7299,
      "ponder": 7300,
      "anguish": 7301,
      "claims": 7302,
      "impatient": 7303,
      "shelter": 7304,
      "Congress": 7305,
      "EM": 7306,
      "Huck": 7307,
      "Pers": 7308,
      "Sep": 7309,
      "ray": 7310,
      "replace": 7311,
      "umm": 7312,
      "els": 7313,
      "denied": 7314,
      "THAT": 7315,
      "secured": 7316,
      "archy": 7317,
      "characteristic": 7318,
      "neglected": 7319,
      "corruption": 7320,
      "attracted": 7321,
      "gravity": 7322,
      "remedy": 7323,
      "econ": 7324,
      "zes": 7325,
      "omon": 7326,
      "agitated": 7327,
      "passive": 7328,
      "posted": 7329,
      "innate": 7330,
      "parlour": 7331,
      "particip": 7332,
      "Society": 7333,
      "Troy": 7334,
      "tout": 7335,
      "disorder": 7336,
      "cerf": 7337,
      "mothers": 7338,
      "fourteen": 7339,
      "Meagles": 7340,
      "extravag": 7341,
      "Gup": 7342,
      "ict": 7343,
      "tip": 7344,
      "acieux": 7345,
      "insist": 7346,
      ".’”": 7347,
      "twilight": 7348,
      "preparing": 7349,
      "dwelling": 7350,
      "oubted": 7351,
      "dea": 7352,
      "insisted": 7353,
      "summit": 7354,
      "pursue": 7355,
      "Morcerf": 7356,
      "Guppy": 7357,
      "iot": 7358,
      "bees": 7359,
      "shif": 7360,
      "flash": 7361,
      "interpre": 7362,
      "fortnight": 7363,
      "barrel": 7364,
      "bounds": 7365,
      "measured": 7366,
      "specim": 7367,
      "Knightley": 7368,
      "ILI": 7369,
      "jol": 7370,
      "haw": 7371,
      "trous": 7372,
      "elbow": 7373,
      "glancing": 7374,
      "formid": 7375,
      "wrapped": 7376,
      "landed": 7377,
      "concerns": 7378,
      "strengthen": 7379,
      "critical": 7380,
      "calculated": 7381,
      "Jon": 7382,
      "hay": 7383,
      "nour": 7384,
      "ashore": 7385,
      "wick": 7386,
      "candles": 7387,
      "climate": 7388,
      "steadily": 7389,
      "Elton": 7390,
      "?--": 7391,
      "Put": 7392,
      "eu": 7393,
      "patter": 7394,
      "score": 7395,
      "uously": 7396,
      "isk": 7397,
      "wept": 7398,
      "lightly": 7399,
      "greet": 7400,
      "corners": 7401,
      "create": 7402,
      "separation": 7403,
      "shouting": 7404,
      "invention": 7405,
      "Friend": 7406,
      "soreau": 7407,
      "coffin": 7408,
      "daz": 7409,
      "éd": 7410,
      "recalled": 7411,
      "reminded": 7412,
      "attained": 7413,
      "tery": 7414,
      "amused": 7415,
      "tya": 7416,
      "meanwhile": 7417,
      "cares": 7418,
      "gallery": 7419,
      "nodded": 7420,
      "jealousy": 7421,
      "Africa": 7422,
      "ahead": 7423,
      "endous": 7424,
      "grows": 7425,
      "interview": 7426,
      "giant": 7427,
      "refuge": 7428,
      "transl": 7429,
      "Tré": 7430,
      "punished": 7431,
      "reckoned": 7432,
      "conquered": 7433,
      "Fairfax": 7434,
      "theatre": 7435,
      "FIRST": 7436,
      "EX": 7437,
      "Ren": 7438,
      "cum": 7439,
      "foul": 7440,
      "gross": 7441,
      "”;": 7442,
      "requisite": 7443,
      "alo": 7444,
      "answers": 7445,
      "princip": 7446,
      "portrait": 7447,
      "dreamed": 7448,
      "warmth": 7449,
      "defic": 7450,
      "commodities": 7451,
      "enthusias": 7452,
      "June": 7453,
      "Phi": 7454,
      "ême": 7455,
      "cannon": 7456,
      "discretion": 7457,
      "brains": 7458,
      "gotten": 7459,
      "spiration": 7460,
      "affectionate": 7461,
      "Laws": 7462,
      "bills": 7463,
      "roused": 7464,
      "insult": 7465,
      "Phœbe": 7466,
      ".),": 7467,
      "Oc": 7468,
      "Pur": 7469,
      "oge": 7470,
      "reception": 7471,
      "decor": 7472,
      "shy": 7473,
      "ounds": 7474,
      "brush": 7475,
      "glit": 7476,
      "scenes": 7477,
      "Monsoreau": 7478,
      "benevol": 7479,
      "resemble": 7480,
      "amusement": 7481,
      "performance": 7482,
      "Nobody": 7483,
      "arched": 7484,
      "loaded": 7485,
      "theirs": 7486,
      "flowing": 7487,
      "hearth": 7488,
      "central": 7489,
      "productive": 7490,
      "sweep": 7491,
      "Republic": 7492,
      "contemplation": 7493,
      "Please": 7494,
      "Sudden": 7495,
      "Cast": 7496,
      "ued": 7497,
      "thedr": 7498,
      "tobac": 7499,
      "icians": 7500,
      "perceptions": 7501,
      "eyed": 7502,
      "retire": 7503,
      "equip": 7504,
      "reflections": 7505,
      "distribute": 7506,
      "executive": 7507,
      "obstin": 7508,
      "ceremony": 7509,
      "DER": 7510,
      "Tem": 7511,
      "ouch": 7512,
      "unpleasant": 7513,
      "glac": 7514,
      "childhood": 7515,
      "ridor": 7516,
      "evils": 7517,
      "mount": 7518,
      "ilian": 7519,
      "Apost": 7520,
      "Part": 7521,
      "uits": 7522,
      "asks": 7523,
      "esse": 7524,
      "dismal": 7525,
      "believing": 7526,
      "engers": 7527,
      "bargain": 7528,
      "possesses": 7529,
      "formidable": 7530,
      "Bob": 7531,
      "Buck": 7532,
      "Time": 7533,
      "fasc": 7534,
      "recent": 7535,
      "iday": 7536,
      "shepher": 7537,
      "grasp": 7538,
      "council": 7539,
      "accum": 7540,
      "Charley": 7541,
      "attachment": 7542,
      "Dorothy": 7543,
      "envy": 7544,
      "ublican": 7545,
      "scientific": 7546,
      "Bold": 7547,
      "Dolly": 7548,
      "IL": 7549,
      "veil": 7550,
      "sack": 7551,
      "offended": 7552,
      "downstairs": 7553,
      "Rochester": 7554,
      "travelling": 7555,
      "thirst": 7556,
      "ALL": 7557,
      "connexion": 7558,
      "Saturday": 7559,
      "tobacco": 7560,
      "MON": 7561,
      "apple": 7562,
      "lais": 7563,
      "holid": 7564,
      "lessons": 7565,
      "ensions": 7566,
      "visitors": 7567,
      "startled": 7568,
      "embrace": 7569,
      "substantial": 7570,
      "45": 7571,
      "XL": 7572,
      "fitting": 7573,
      "tie": 7574,
      "remind": 7575,
      "alled": 7576,
      "continual": 7577,
      "studied": 7578,
      "Englishman": 7579,
      "preservation": 7580,
      "situated": 7581,
      "XVIII": 7582,
      "luxury": 7583,
      "consolation": 7584,
      "Sou": 7585,
      "pages": 7586,
      "wave": 7587,
      "ini": 7588,
      "llo": 7589,
      "mais": 7590,
      "paint": 7591,
      "balls": 7592,
      "resistance": 7593,
      "wheels": 7594,
      "consumption": 7595,
      "Get": 7596,
      "List": 7597,
      "SU": 7598,
      "fan": 7599,
      "fence": 7600,
      "gers": 7601,
      "mould": 7602,
      "paces": 7603,
      "être": 7604,
      "butt": 7605,
      "lesson": 7606,
      "identity": 7607,
      "axe": 7608,
      "lodging": 7609,
      "impatience": 7610,
      "assembled": 7611,
      "desirable": 7612,
      "Petrov": 7613,
      "traveller": 7614,
      "Gentle": 7615,
      "Max": 7616,
      "aur": 7617,
      "beach": 7618,
      "dislike": 7619,
      "doubted": 7620,
      "diction": 7621,
      "destiny": 7622,
      "inquiries": 7623,
      "failure": 7624,
      "amazement": 7625,
      "betrayed": 7626,
      "sanct": 7627,
      "Bed": 7628,
      "dine": 7629,
      "adia": 7630,
      "lovers": 7631,
      "Anim": 7632,
      "ANY": 7633,
      "Comte": 7634,
      "successive": 7635,
      "smoking": 7636,
      "burnt": 7637,
      "trades": 7638,
      "tradition": 7639,
      "Lorry": 7640,
      "Brutus": 7641,
      "enthusiasm": 7642,
      "bars": 7643,
      "sne": 7644,
      "inform": 7645,
      "rear": 7646,
      "indirect": 7647,
      "jections": 7648,
      "strained": 7649,
      "consisted": 7650,
      "natured": 7651,
      "calam": 7652,
      "........": 7653,
      "gravely": 7654,
      "scratch": 7655,
      "errors": 7656,
      "Pyncheon": 7657,
      "dus": 7658,
      "dangers": 7659,
      "hut": 7660,
      "sway": 7661,
      "wer": 7662,
      "bewild": 7663,
      "rien": 7664,
      "demon": 7665,
      "offering": 7666,
      "***": 7667,
      "applicable": 7668,
      "merchants": 7669,
      "evolution": 7670,
      "detach": 7671,
      "Last": 7672,
      "Sever": 7673,
      "Scro": 7674,
      "aire": 7675,
      "route": 7676,
      "teth": 7677,
      "faults": 7678,
      "displayed": 7679,
      "masses": 7680,
      "Snags": 7681,
      "None": 7682,
      "Spr": 7683,
      "vag": 7684,
      "invari": 7685,
      "heir": 7686,
      "traction": 7687,
      "geant": 7688,
      "lasted": 7689,
      "hundreds": 7690,
      "impse": 7691,
      "liberal": 7692,
      "dependent": 7693,
      "mixture": 7694,
      "observations": 7695,
      "recollection": 7696,
      "Michael": 7697,
      "accommod": 7698,
      "fame": 7699,
      "assass": 7700,
      "sibly": 7701,
      "longing": 7702,
      "ventured": 7703,
      "Herbert": 7704,
      "pistol": 7705,
      "discipline": 7706,
      "HAMLET": 7707,
      "Snagsby": 7708,
      "Raz": 7709,
      "tones": 7710,
      "exagger": 7711,
      "coal": 7712,
      "adequ": 7713,
      "glimpse": 7714,
      "tingu": 7715,
      "wont": 7716,
      "contract": 7717,
      "Pope": 7718,
      "advantageous": 7719,
      "tumult": 7720,
      "Bonacieux": 7721,
      "conspic": 7722,
      "Meanwhile": 7723,
      "Scrooge": 7724,
      "Jup": 7725,
      "Lad": 7726,
      "fts": 7727,
      "jug": 7728,
      "anchor": 7729,
      "itious": 7730,
      "rip": 7731,
      "pear": 7732,
      "fert": 7733,
      "brut": 7734,
      "thoughtful": 7735,
      "subdu": 7736,
      "compens": 7737,
      "aneous": 7738,
      "completed": 7739,
      "starting": 7740,
      "instruments": 7741,
      "Met": 7742,
      "Nadia": 7743,
      "incapable": 7744,
      "asping": 7745,
      "leather": 7746,
      "yourselves": 7747,
      "ledge": 7748,
      "joining": 7749,
      "signified": 7750,
      "fired": 7751,
      "secondly": 7752,
      "hastened": 7753,
      "stroke": 7754,
      "crimes": 7755,
      "Solomon": 7756,
      "Mam": 7757,
      "icles": 7758,
      "woe": 7759,
      "schools": 7760,
      "altar": 7761,
      "deserved": 7762,
      "average": 7763,
      "coachman": 7764,
      "phenomenon": 7765,
      "issue": 7766,
      "mourn": 7767,
      "awakened": 7768,
      "Jupiter": 7769,
      "Gard": 7770,
      "Hist": 7771,
      "pse": 7772,
      "extingu": 7773,
      "Châ": 7774,
      "reluct": 7775,
      "shortly": 7776,
      "grie": 7777,
      "invented": 7778,
      "Child": 7779,
      "deemed": 7780,
      "Athen": 7781,
      "Bill": 7782,
      "Far": 7783,
      "awoke": 7784,
      "bation": 7785,
      "enabled": 7786,
      "concent": 7787,
      "disgust": 7788,
      "offspring": 7789,
      "guilt": 7790,
      "holder": 7791,
      "voluntary": 7792,
      "providence": 7793,
      "travers": 7794,
      "songs": 7795,
      "attribute": 7796,
      "Demi": 7797,
      "dun": 7798,
      "natives": 7799,
      "Island": 7800,
      "providing": 7801,
      "hesitated": 7802,
      "Flint": 7803,
      "Green": 7804,
      "Suddenly": 7805,
      "El": 7806,
      "PE": 7807,
      "Rod": 7808,
      "isions": 7809,
      "blank": 7810,
      "writers": 7811,
      "griev": 7812,
      "puff": 7813,
      "Dedlock": 7814,
      "End": 7815,
      "Lake": 7816,
      "Pass": 7817,
      "rack": 7818,
      "stuck": 7819,
      "aine": 7820,
      "appar": 7821,
      "placing": 7822,
      "volume": 7823,
      "strongest": 7824,
      "harness": 7825,
      "bourg": 7826,
      "peasant": 7827,
      "plumage": 7828,
      "wilderness": 7829,
      "mature": 7830,
      "olic": 7831,
      "pir": 7832,
      "ût": 7833,
      "chains": 7834,
      "ria": 7835,
      "rian": 7836,
      "trum": 7837,
      "istribut": 7838,
      "considerations": 7839,
      "floating": 7840,
      "cruelty": 7841,
      "Razum": 7842,
      "suited": 7843,
      "umbling": 7844,
      "compare": 7845,
      "compliance": 7846,
      "impressed": 7847,
      "graceful": 7848,
      "Bennet": 7849,
      "fashioned": 7850,
      "literature": 7851,
      "Dash": 7852,
      "dumb": 7853,
      "ensible": 7854,
      "ada": 7855,
      "nephe": 7856,
      "posure": 7857,
      "prize": 7858,
      "numerable": 7859,
      "IST": 7860,
      "wandered": 7861,
      "abstract": 7862,
      "intentions": 7863,
      "nephew": 7864,
      "CK": 7865,
      "bade": 7866,
      "han": 7867,
      "ratt": 7868,
      "sul": 7869,
      "management": 7870,
      "docu": 7871,
      "hook": 7872,
      "warrant": 7873,
      "Christians": 7874,
      "learnt": 7875,
      "Tommy": 7876,
      "grove": 7877,
      "glasses": 7878,
      "fleet": 7879,
      "madness": 7880,
      "sharply": 7881,
      "manufactures": 7882,
      "torture": 7883,
      "Speak": 7884,
      "Sikes": 7885,
      "Caesar": 7886,
      "potentiality": 7887,
      "Maxim": 7888,
      "pag": 7889,
      "lick": 7890,
      "root": 7891,
      "umbled": 7892,
      "blew": 7893,
      "shaken": 7894,
      "advancing": 7895,
      "Missis": 7896,
      "representations": 7897,
      "gallant": 7898,
      "Silas": 7899,
      "plunged": 7900,
      "Tréville": 7901,
      "35": 7902,
      "Hart": 7903,
      "Ophe": 7904,
      "ai": 7905,
      "cats": 7906,
      "rivers": 7907,
      "residence": 7908,
      "procure": 7909,
      "Peters": 7910,
      "violently": 7911,
      "villain": 7912,
      "forests": 7913,
      "indicated": 7914,
      "breeze": 7915,
      "ihin": 7916,
      "Scotland": 7917,
      "Boldwood": 7918,
      "Sure": 7919,
      "rays": 7920,
      "is_": 7921,
      "trap": 7922,
      "promises": 7923,
      "thirteen": 7924,
      "sadly": 7925,
      "dishon": 7926,
      "platform": 7927,
      "Ophelia": 7928,
      "estern": 7929,
      "sters": 7930,
      "irregular": 7931,
      "roses": 7932,
      "uncomfortable": 7933,
      "kee": 7934,
      "induced": 7935,
      "interpret": 7936,
      "contents": 7937,
      "syll": 7938,
      "Friday": 7939,
      "passages": 7940,
      "Colin": 7941,
      "eldest": 7942,
      "breathe": 7943,
      "messenger": 7944,
      "Raoul": 7945,
      "Razumihin": 7946,
      "chances": 7947,
      "peo": 7948,
      "faire": 7949,
      "prescri": 7950,
      "paralle": 7951,
      "irtier": 7952,
      "passionate": 7953,
      "superflu": 7954,
      "afforded": 7955,
      "encouragement": 7956,
      "Ap": 7957,
      "Mark": 7958,
      "pile": 7959,
      "refr": 7960,
      "arrested": 7961,
      "rice": 7962,
      "button": 7963,
      "performing": 7964,
      "cane": 7965,
      "skull": 7966,
      "supplied": 7967,
      "students": 7968,
      "invitation": 7969,
      "judgement": 7970,
      "yielded": 7971,
      "strictly": 7972,
      "located": 7973,
      "deprived": 7974,
      "provinces": 7975,
      "saddle": 7976,
      "commenced": 7977,
      "Land": 7978,
      "cod": 7979,
      "chick": 7980,
      "defined": 7981,
      "moves": 7982,
      "induce": 7983,
      "closing": 7984,
      "mines": 7985,
      "accused": 7986,
      "skir": 7987,
      "madam": 7988,
      "Subject": 7989,
      "contradiction": 7990,
      "Senate": 7991,
      "Hav": 7992,
      "Tro": 7993,
      "rags": 7994,
      "mob": 7995,
      "urches": 7996,
      "tele": 7997,
      "county": 7998,
      "workmen": 7999
    },
    "merges": [
      [
        "t",
        "h"
      ],
      [
        "th",
        "e"
      ],
      [
        "i",
        "n"
      ],
      [
        "a",
        "n"
      ],
      [
        "e",
        "r"
      ],
      [
        "r",
        "e"
      ],
      [
        "o",
        "n"
      ],
      [
        "o",
        "u"
      ],
      [
        "a",
        "t"
      ],
      [
        "e",
        "n"
      ],
      [
        "i",
        "s"
      ],
      [
        "e",
        "d"
      ],
      [
        "an",
        "d"
      ],
      [
        "t",
        "o"
      ],
      [
        "o",
        "f"
      ],
      [
        "a",
        "s"
      ],
      [
        "o",
        "r"
      ],
      [
        "e",
        "s"
      ],
      [
        "in",
        "g"
      ],
      [
        "i",
        "t"
      ],
      [
        "a",
        "r"
      ],
      [
        "a",
        "l"
      ],
      [
        "h",
        "e"
      ],
      [
        "s",
        "e"
      ],
      [
        "l",
        "e"
      ],
      [
        "b",
        "e"
      ],
      [
        "s",
        "t"
      ],
      [
        "c",
        "h"
      ],
      [
        "o",
        "m"
      ],
      [
        "w",
        "h"
      ],
      [
        "n",
        "o"
      ],
      [
        "a",
        "d"
      ],
      [
        "l",
        "y"
      ],
      [
        "c",
        "e"
      ],
      [
        "th",
        "at"
      ],
      [
        "w",
        "i"
      ],
      [
        "i",
        "on"
      ],
      [
        "v",
        "e"
      ],
      [
        "i",
        "m"
      ],
      [
        "l",
        "l"
      ],
      [
        "en",
        "t"
      ],
      [
        "i",
        "d"
      ],
      [
        "l",
        "d"
      ],
      [
        "u",
        "t"
      ],
      [
        "g",
        "h"
      ],
      [
        "v",
        "er"
      ],
      [
        "o",
        "w"
      ],
      [
        "f",
        "or"
      ],
      [
        "m",
        "e"
      ],
      [
        "w",
        "as"
      ],
      [
        "a",
        "y"
      ],
      [
        "i",
        "r"
      ],
      [
        "l",
        "i"
      ],
      [
        "y",
        "ou"
      ],
      [
        "wi",
        "th"
      ],
      [
        "h",
        "is"
      ],
      [
        "h",
        "a"
      ],
      [
        "c",
        "t"
      ],
      [
        "r",
        "o"
      ],
      [
        "al",
        "l"
      ],
      [
        "no",
        "t"
      ],
      [
        "r",
        "i"
      ],
      [
        "h",
        "er"
      ],
      [
        "u",
        "n"
      ],
      [
        "t",
        "er"
      ],
      [
        "s",
        "u"
      ],
      [
        "the",
        "r"
      ],
      [
        "d",
        "e"
      ],
      [
        "gh",
        "t"
      ],
      [
        "s",
        "a"
      ],
      [
        "s",
        "o"
      ],
      [
        "c",
        "on"
      ],
      [
        "wh",
        "i"
      ],
      [
        "h",
        "ad"
      ],
      [
        "k",
        "e"
      ],
      [
        "a",
        "b"
      ],
      [
        "ou",
        "ld"
      ],
      [
        "w",
        "e"
      ],
      [
        "m",
        "o"
      ],
      [
        "l",
        "o"
      ],
      [
        "a",
        "re"
      ],
      [
        "u",
        "r"
      ],
      [
        "a",
        "g"
      ],
      [
        "a",
        "in"
      ],
      [
        "n",
        "e"
      ],
      [
        "s",
        "h"
      ],
      [
        "i",
        "c"
      ],
      [
        "p",
        "e"
      ],
      [
        "on",
        "e"
      ],
      [
        "f",
        "e"
      ],
      [
        "whi",
        "ch"
      ],
      [
        "b",
        "y"
      ],
      [
        "es",
        "s"
      ],
      [
        "o",
        "d"
      ],
      [
        "p",
        "o"
      ],
      [
        "h",
        "im"
      ],
      [
        "om",
        "e"
      ],
      [
        "er",
        "e"
      ],
      [
        "a",
        "m"
      ],
      [
        "ou",
        "t"
      ],
      [
        "a",
        "c"
      ],
      [
        "u",
        "s"
      ],
      [
        "b",
        "ut"
      ],
      [
        "ha",
        "ve"
      ],
      [
        "m",
        "y"
      ],
      [
        "ou",
        "r"
      ],
      [
        "m",
        "an"
      ],
      [
        "n",
        "d"
      ],
      [
        "f",
        "r"
      ],
      [
        "T",
        "he"
      ],
      [
        "i",
        "f"
      ],
      [
        "q",
        "u"
      ],
      [
        "p",
        "er"
      ],
      [
        "e",
        "t"
      ],
      [
        "g",
        "o"
      ],
      [
        "e",
        "x"
      ],
      [
        "u",
        "l"
      ],
      [
        "i",
        "l"
      ],
      [
        "at",
        "ion"
      ],
      [
        "u",
        "p"
      ],
      [
        "th",
        "is"
      ],
      [
        "re",
        "s"
      ],
      [
        "d",
        "o"
      ],
      [
        "es",
        "t"
      ],
      [
        "t",
        "r"
      ],
      [
        "fr",
        "om"
      ],
      [
        "th",
        "ing"
      ],
      [
        "no",
        "w"
      ],
      [
        ".",
        "”"
      ],
      [
        "the",
        "y"
      ],
      [
        "an",
        "t"
      ],
      [
        "ar",
        "d"
      ],
      [
        "in",
        "d"
      ],
      [
        "s",
        "he"
      ],
      [
        "a",
        "p"
      ],
      [
        "f",
        "o"
      ],
      [
        "sa",
        "id"
      ],
      [
        "c",
        "om"
      ],
      [
        "wh",
        "o"
      ],
      [
        "t",
        "e"
      ],
      [
        "se",
        "l"
      ],
      [
        "ou",
        "s"
      ],
      [
        "ver",
        "y"
      ],
      [
        "u",
        "st"
      ],
      [
        "ar",
        "t"
      ],
      [
        "at",
        "e"
      ],
      [
        "en",
        "d"
      ],
      [
        "p",
        "ro"
      ],
      [
        "the",
        "m"
      ],
      [
        "p",
        "l"
      ],
      [
        "g",
        "e"
      ],
      [
        "the",
        "re"
      ],
      [
        "w",
        "or"
      ],
      [
        "o",
        "ther"
      ],
      [
        "w",
        "ere"
      ],
      [
        "is",
        "t"
      ],
      [
        "it",
        "y"
      ],
      [
        "i",
        "ll"
      ],
      [
        "s",
        "ome"
      ],
      [
        "d",
        "er"
      ],
      [
        "the",
        "ir"
      ],
      [
        "o",
        "k"
      ],
      [
        "on",
        "g"
      ],
      [
        "c",
        "a"
      ],
      [
        "c",
        "o"
      ],
      [
        "ow",
        "n"
      ],
      [
        "an",
        "y"
      ],
      [
        "w",
        "ould"
      ],
      [
        "p",
        "r"
      ],
      [
        ",",
        "”"
      ],
      [
        "as",
        "t"
      ],
      [
        "sel",
        "f"
      ],
      [
        "f",
        "a"
      ],
      [
        "w",
        "ay"
      ],
      [
        "u",
        "re"
      ],
      [
        "i",
        "ght"
      ],
      [
        "e",
        "m"
      ],
      [
        "en",
        "ce"
      ],
      [
        "ou",
        "nd"
      ],
      [
        "a",
        "k"
      ],
      [
        "wi",
        "ll"
      ],
      [
        "o",
        "p"
      ],
      [
        "i",
        "ve"
      ],
      [
        "v",
        "en"
      ],
      [
        "ou",
        "gh"
      ],
      [
        "c",
        "i"
      ],
      [
        "wh",
        "at"
      ],
      [
        "t",
        "im"
      ],
      [
        "H",
        "e"
      ],
      [
        "be",
        "en"
      ],
      [
        "c",
        "an"
      ],
      [
        "is",
        "h"
      ],
      [
        "r",
        "a"
      ],
      [
        "re",
        "at"
      ],
      [
        "fo",
        "re"
      ],
      [
        "wh",
        "en"
      ],
      [
        "mo",
        "re"
      ],
      [
        "k",
        "now"
      ],
      [
        "m",
        "ent"
      ],
      [
        "ab",
        "le"
      ],
      [
        "i",
        "g"
      ],
      [
        "er",
        "s"
      ],
      [
        "T",
        "h"
      ],
      [
        "b",
        "o"
      ],
      [
        "it",
        "t"
      ],
      [
        "l",
        "a"
      ],
      [
        "-",
        "-"
      ],
      [
        "W",
        "h"
      ],
      [
        "I",
        "t"
      ],
      [
        "th",
        "an"
      ],
      [
        "re",
        "d"
      ],
      [
        "her",
        "e"
      ],
      [
        "u",
        "m"
      ],
      [
        "in",
        "e"
      ],
      [
        "c",
        "k"
      ],
      [
        "a",
        "f"
      ],
      [
        "it",
        "s"
      ],
      [
        "B",
        "ut"
      ],
      [
        "po",
        "s"
      ],
      [
        "an",
        "ce"
      ],
      [
        "a",
        "ke"
      ],
      [
        "ou",
        "n"
      ],
      [
        "i",
        "e"
      ],
      [
        "M",
        "r"
      ],
      [
        "id",
        "e"
      ],
      [
        "as",
        "s"
      ],
      [
        "you",
        "r"
      ],
      [
        "li",
        "ke"
      ],
      [
        "?",
        "”"
      ],
      [
        "c",
        "ould"
      ],
      [
        "A",
        "nd"
      ],
      [
        "ou",
        "ght"
      ],
      [
        "b",
        "le"
      ],
      [
        "g",
        "r"
      ],
      [
        "e",
        "l"
      ],
      [
        "v",
        "ed"
      ],
      [
        "p",
        "re"
      ],
      [
        "d",
        "is"
      ],
      [
        "p",
        "res"
      ],
      [
        "u",
        "se"
      ],
      [
        "or",
        "t"
      ],
      [
        "in",
        "to"
      ],
      [
        "s",
        "ay"
      ],
      [
        "h",
        "as"
      ],
      [
        "w",
        "o"
      ],
      [
        "h",
        "o"
      ],
      [
        "ct",
        "ion"
      ],
      [
        "p",
        "t"
      ],
      [
        "i",
        "es"
      ],
      [
        "p",
        "art"
      ],
      [
        "t",
        "ain"
      ],
      [
        "al",
        "ly"
      ],
      [
        "e",
        "p"
      ],
      [
        "it",
        "e"
      ],
      [
        "on",
        "ly"
      ],
      [
        "b",
        "er"
      ],
      [
        "ad",
        "e"
      ],
      [
        "p",
        "le"
      ],
      [
        "b",
        "l"
      ],
      [
        "the",
        "n"
      ],
      [
        "an",
        "s"
      ],
      [
        "r",
        "y"
      ],
      [
        "tim",
        "e"
      ],
      [
        "o",
        "l"
      ],
      [
        "g",
        "reat"
      ],
      [
        "ur",
        "n"
      ],
      [
        "se",
        "e"
      ],
      [
        "lo",
        "ok"
      ],
      [
        "a",
        "ch"
      ],
      [
        "f",
        "ul"
      ],
      [
        "t",
        "y"
      ],
      [
        "f",
        "er"
      ],
      [
        "go",
        "od"
      ],
      [
        "v",
        "es"
      ],
      [
        "d",
        "ay"
      ],
      [
        "i",
        "re"
      ],
      [
        "u",
        "e"
      ],
      [
        "u",
        "ch"
      ],
      [
        "in",
        "k"
      ],
      [
        "o",
        "ver"
      ],
      [
        "ac",
        "k"
      ],
      [
        "j",
        "e"
      ],
      [
        "re",
        "e"
      ],
      [
        "o",
        "b"
      ],
      [
        "o",
        "se"
      ],
      [
        "m",
        "en"
      ],
      [
        "itt",
        "le"
      ],
      [
        "sh",
        "ould"
      ],
      [
        "d",
        "id"
      ],
      [
        "e",
        "ar"
      ],
      [
        "p",
        "p"
      ],
      [
        "ar",
        "y"
      ],
      [
        "s",
        "p"
      ],
      [
        "up",
        "on"
      ],
      [
        "m",
        "ay"
      ],
      [
        "un",
        "der"
      ],
      [
        "i",
        "ce"
      ],
      [
        "su",
        "ch"
      ],
      [
        "mo",
        "st"
      ],
      [
        "h",
        "and"
      ],
      [
        "b",
        "r"
      ],
      [
        "ag",
        "ain"
      ],
      [
        "ab",
        "out"
      ],
      [
        "u",
        "d"
      ],
      [
        "l",
        "ittle"
      ],
      [
        "v",
        "ing"
      ],
      [
        "m",
        "ust"
      ],
      [
        "s",
        "i"
      ],
      [
        "e",
        "ver"
      ],
      [
        "wh",
        "ere"
      ],
      [
        "ag",
        "e"
      ],
      [
        "h",
        "ow"
      ],
      [
        "c",
        "l"
      ],
      [
        "st",
        "r"
      ],
      [
        "a",
        "ct"
      ],
      [
        "s",
        "pe"
      ],
      [
        "!",
        "”"
      ],
      [
        "l",
        "ong"
      ],
      [
        "c",
        "ome"
      ],
      [
        "e",
        "very"
      ],
      [
        "g",
        "l"
      ],
      [
        "f",
        "ir"
      ],
      [
        "n",
        "ess"
      ],
      [
        "m",
        "uch"
      ],
      [
        "in",
        "t"
      ],
      [
        "t",
        "urn"
      ],
      [
        "ion",
        "s"
      ],
      [
        "at",
        "ed"
      ],
      [
        "I",
        "n"
      ],
      [
        "s",
        "to"
      ],
      [
        "for",
        "m"
      ],
      [
        "the",
        "se"
      ],
      [
        "s",
        "er"
      ],
      [
        "is",
        "e"
      ],
      [
        "re",
        "ad"
      ],
      [
        "c",
        "oun"
      ],
      [
        "je",
        "ct"
      ],
      [
        "m",
        "on"
      ],
      [
        "we",
        "ll"
      ],
      [
        "d",
        "es"
      ],
      [
        "m",
        "ade"
      ],
      [
        "af",
        "ter"
      ],
      [
        "a",
        "ce"
      ],
      [
        "l",
        "ess"
      ],
      [
        "t",
        "wo"
      ],
      [
        "of",
        "f"
      ],
      [
        "or",
        "d"
      ],
      [
        "be",
        "ing"
      ],
      [
        "be",
        "fore"
      ],
      [
        "an",
        "g"
      ],
      [
        "W",
        "e"
      ],
      [
        "o",
        "ld"
      ],
      [
        "w",
        "ard"
      ],
      [
        "o",
        "t"
      ],
      [
        "ne",
        "ver"
      ],
      [
        "n",
        "at"
      ],
      [
        "e",
        "ven"
      ],
      [
        "th",
        "ose"
      ],
      [
        "th",
        "ink"
      ],
      [
        "d",
        "own"
      ],
      [
        "th",
        "r"
      ],
      [
        "ri",
        "ght"
      ],
      [
        "le",
        "t"
      ],
      [
        "c",
        "er"
      ],
      [
        "ca",
        "use"
      ],
      [
        "fir",
        "st"
      ],
      [
        "be",
        "t"
      ],
      [
        "c",
        "r"
      ],
      [
        "f",
        "l"
      ],
      [
        "th",
        "ought"
      ],
      [
        "ig",
        "n"
      ],
      [
        "h",
        "i"
      ],
      [
        "li",
        "ght"
      ],
      [
        "k",
        "ed"
      ],
      [
        "ar",
        "m"
      ],
      [
        "i",
        "ous"
      ],
      [
        "sa",
        "me"
      ],
      [
        "thing",
        "s"
      ],
      [
        "ca",
        "me"
      ],
      [
        "him",
        "self"
      ],
      [
        "with",
        "out"
      ],
      [
        "con",
        "s"
      ],
      [
        "Y",
        "ou"
      ],
      [
        "a",
        "u"
      ],
      [
        "e",
        "y"
      ],
      [
        "ne",
        "w"
      ],
      [
        "m",
        "ight"
      ],
      [
        "se",
        "em"
      ],
      [
        "s",
        "on"
      ],
      [
        "m",
        "ar"
      ],
      [
        "sh",
        "all"
      ],
      [
        "c",
        "ess"
      ],
      [
        "w",
        "ent"
      ],
      [
        "a",
        "th"
      ],
      [
        "or",
        "n"
      ],
      [
        "th",
        "ough"
      ],
      [
        "j",
        "ust"
      ],
      [
        "re",
        "n"
      ],
      [
        "G",
        "od"
      ],
      [
        "a",
        "ve"
      ],
      [
        "t",
        "en"
      ],
      [
        "l",
        "ed"
      ],
      [
        "in",
        "ter"
      ],
      [
        "an",
        "c"
      ],
      [
        "k",
        "ing"
      ],
      [
        "be",
        "g"
      ],
      [
        "s",
        "c"
      ],
      [
        "i",
        "ly"
      ],
      [
        "p",
        "ass"
      ],
      [
        "ri",
        "ed"
      ],
      [
        "d",
        "u"
      ],
      [
        "wor",
        "d"
      ],
      [
        "i",
        "v"
      ],
      [
        "m",
        "ake"
      ],
      [
        "it",
        "ion"
      ],
      [
        "t",
        "ed"
      ],
      [
        "re",
        "as"
      ],
      [
        "c",
        "all"
      ],
      [
        "T",
        "here"
      ],
      [
        "p",
        "s"
      ],
      [
        "st",
        "and"
      ],
      [
        "ll",
        "ow"
      ],
      [
        "he",
        "ad"
      ],
      [
        "_",
        "_"
      ],
      [
        "a",
        "me"
      ],
      [
        "li",
        "fe"
      ],
      [
        "a",
        "ir"
      ],
      [
        "S",
        "he"
      ],
      [
        "g",
        "et"
      ],
      [
        "to",
        "o"
      ],
      [
        "d",
        "if"
      ],
      [
        "wor",
        "k"
      ],
      [
        "at",
        "t"
      ],
      [
        "b",
        "od"
      ],
      [
        "c",
        "our"
      ],
      [
        "c",
        "as"
      ],
      [
        "is",
        "s"
      ],
      [
        "ow",
        "er"
      ],
      [
        "e",
        "f"
      ],
      [
        "m",
        "ind"
      ],
      [
        "way",
        "s"
      ],
      [
        "s",
        "m"
      ],
      [
        "su",
        "b"
      ],
      [
        "ation",
        "s"
      ],
      [
        "t",
        "s"
      ],
      [
        "d",
        "ist"
      ],
      [
        "ou",
        "se"
      ],
      [
        "no",
        "thing"
      ],
      [
        "at",
        "ter"
      ],
      [
        "fe",
        "ct"
      ],
      [
        "p",
        "ut"
      ],
      [
        "ap",
        "pe"
      ],
      [
        "i",
        "ld"
      ],
      [
        "thr",
        "ough"
      ],
      [
        "b",
        "ack"
      ],
      [
        "an",
        "ge"
      ],
      [
        "man",
        "y"
      ],
      [
        "con",
        "t"
      ],
      [
        "d",
        "on"
      ],
      [
        "l",
        "es"
      ],
      [
        ".",
        "."
      ],
      [
        "en",
        "er"
      ],
      [
        "c",
        "lo"
      ],
      [
        "er",
        "ed"
      ],
      [
        "e",
        "v"
      ],
      [
        "op",
        "le"
      ],
      [
        "p",
        "ar"
      ],
      [
        "T",
        "his"
      ],
      [
        "an",
        "other"
      ],
      [
        "f",
        "ri"
      ],
      [
        "Wh",
        "at"
      ],
      [
        "li",
        "c"
      ],
      [
        "s",
        "en"
      ],
      [
        "pres",
        "ent"
      ],
      [
        "a",
        "way"
      ],
      [
        "f",
        "ound"
      ],
      [
        "to",
        "r"
      ],
      [
        "ha",
        "pp"
      ],
      [
        "m",
        "in"
      ],
      [
        "F",
        "or"
      ],
      [
        "v",
        "o"
      ],
      [
        "S",
        "t"
      ],
      [
        "m",
        "ed"
      ],
      [
        "pl",
        "ace"
      ],
      [
        "st",
        "ill"
      ],
      [
        "n",
        "ight"
      ],
      [
        "y",
        "et"
      ],
      [
        "te",
        "ll"
      ],
      [
        "be",
        "cause"
      ],
      [
        "n",
        "g"
      ],
      [
        "p",
        "ort"
      ],
      [
        "pe",
        "ople"
      ],
      [
        "ple",
        "as"
      ],
      [
        "ing",
        "s"
      ],
      [
        "g",
        "i"
      ],
      [
        "in",
        "ce"
      ],
      [
        "=",
        "="
      ],
      [
        "m",
        "er"
      ],
      [
        "tr",
        "y"
      ],
      [
        "l",
        "ast"
      ],
      [
        "w",
        "om"
      ],
      [
        "pres",
        "s"
      ],
      [
        "you",
        "ng"
      ],
      [
        "ak",
        "ing"
      ],
      [
        "i",
        "ed"
      ],
      [
        "h",
        "ouse"
      ],
      [
        "go",
        "t"
      ],
      [
        "ce",
        "pt"
      ],
      [
        "ic",
        "k"
      ],
      [
        "t",
        "ake"
      ],
      [
        "l",
        "t"
      ],
      [
        "re",
        "g"
      ],
      [
        "I",
        "f"
      ],
      [
        "f",
        "t"
      ],
      [
        "al",
        "ways"
      ],
      [
        "ar",
        "s"
      ],
      [
        "bod",
        "y"
      ],
      [
        "li",
        "e"
      ],
      [
        "N",
        "o"
      ],
      [
        "C",
        "h"
      ],
      [
        "n",
        "er"
      ],
      [
        "k",
        "ind"
      ],
      [
        "fri",
        "end"
      ],
      [
        "en",
        "ed"
      ],
      [
        "res",
        "s"
      ],
      [
        "i",
        "ther"
      ],
      [
        "for",
        "t"
      ],
      [
        "su",
        "r"
      ],
      [
        "ey",
        "es"
      ],
      [
        "c",
        "ar"
      ],
      [
        "cer",
        "tain"
      ],
      [
        "o",
        "c"
      ],
      [
        "are",
        "d"
      ],
      [
        "v",
        "i"
      ],
      [
        "ro",
        "om"
      ],
      [
        "w",
        "ant"
      ],
      [
        "pe",
        "ct"
      ],
      [
        "The",
        "y"
      ],
      [
        "i",
        "p"
      ],
      [
        "re",
        "t"
      ],
      [
        "g",
        "u"
      ],
      [
        "r",
        "u"
      ],
      [
        "p",
        "h"
      ],
      [
        "whi",
        "le"
      ],
      [
        "se",
        "t"
      ],
      [
        "A",
        "r"
      ],
      [
        "at",
        "er"
      ],
      [
        "reas",
        "on"
      ],
      [
        "ent",
        "ly"
      ],
      [
        "w",
        "r"
      ],
      [
        "i",
        "th"
      ],
      [
        "le",
        "ct"
      ],
      [
        "wor",
        "ld"
      ],
      [
        "fa",
        "ce"
      ],
      [
        "ac",
        "c"
      ],
      [
        "y",
        "ear"
      ],
      [
        "s",
        "ide"
      ],
      [
        "d",
        "en"
      ],
      [
        "b",
        "re"
      ],
      [
        "ic",
        "ul"
      ],
      [
        "lo",
        "ve"
      ],
      [
        "b",
        "ro"
      ],
      [
        "c",
        "ed"
      ],
      [
        "l",
        "and"
      ],
      [
        "ish",
        "ed"
      ],
      [
        "p",
        "ri"
      ],
      [
        "he",
        "art"
      ],
      [
        "com",
        "p"
      ],
      [
        "c",
        "le"
      ],
      [
        "tim",
        "es"
      ],
      [
        "turn",
        "ed"
      ],
      [
        "E",
        "R"
      ],
      [
        "n",
        "or"
      ],
      [
        "ic",
        "al"
      ],
      [
        "s",
        "s"
      ],
      [
        "j",
        "o"
      ],
      [
        "com",
        "m"
      ],
      [
        "ch",
        "ild"
      ],
      [
        "g",
        "ive"
      ],
      [
        "re",
        "p"
      ],
      [
        "al",
        "e"
      ],
      [
        "u",
        "ll"
      ],
      [
        "Th",
        "at"
      ],
      [
        "f",
        "ar"
      ],
      [
        "ad",
        "d"
      ],
      [
        "g",
        "ener"
      ],
      [
        "a",
        "w"
      ],
      [
        "at",
        "es"
      ],
      [
        "re",
        "m"
      ],
      [
        "i",
        "an"
      ],
      [
        "fe",
        "el"
      ],
      [
        "la",
        "w"
      ],
      [
        "t",
        "ing"
      ],
      [
        "a",
        "v"
      ],
      [
        "n",
        "ing"
      ],
      [
        "sa",
        "w"
      ],
      [
        "on",
        "d"
      ],
      [
        "or",
        "der"
      ],
      [
        "al",
        "so"
      ],
      [
        "in",
        "ess"
      ],
      [
        "f",
        "in"
      ],
      [
        "u",
        "al"
      ],
      [
        "ar",
        "k"
      ],
      [
        "sel",
        "ves"
      ],
      [
        "a",
        "it"
      ],
      [
        "po",
        "int"
      ],
      [
        "do",
        "or"
      ],
      [
        "om",
        "ent"
      ],
      [
        "si",
        "ble"
      ],
      [
        "b",
        "ed"
      ],
      [
        "m",
        "oment"
      ],
      [
        "th",
        "ree"
      ],
      [
        "f",
        "ind"
      ],
      [
        "re",
        "l"
      ],
      [
        "t",
        "al"
      ],
      [
        "un",
        "d"
      ],
      [
        "p",
        "ower"
      ],
      [
        "so",
        "l"
      ],
      [
        "per",
        "son"
      ],
      [
        "some",
        "thing"
      ],
      [
        "in",
        "st"
      ],
      [
        "u",
        "b"
      ],
      [
        "te",
        "m"
      ],
      [
        "dif",
        "fer"
      ],
      [
        "look",
        "ed"
      ],
      [
        "i",
        "z"
      ],
      [
        "A",
        "s"
      ],
      [
        "co",
        "l"
      ],
      [
        "on",
        "ce"
      ],
      [
        "con",
        "d"
      ],
      [
        "me",
        "m"
      ],
      [
        "Mr",
        "s"
      ],
      [
        "do",
        "es"
      ],
      [
        "h",
        "or"
      ],
      [
        "c",
        "ap"
      ],
      [
        "ver",
        "s"
      ],
      [
        "en",
        "s"
      ],
      [
        "e",
        "as"
      ],
      [
        "s",
        "ou"
      ],
      [
        "c",
        "es"
      ],
      [
        "to",
        "ok"
      ],
      [
        "bo",
        "th"
      ],
      [
        "s",
        "ha"
      ],
      [
        "nat",
        "ure"
      ],
      [
        "cons",
        "id"
      ],
      [
        "un",
        "t"
      ],
      [
        "ch",
        "o"
      ],
      [
        "seem",
        "ed"
      ],
      [
        "who",
        "le"
      ],
      [
        "ward",
        "s"
      ],
      [
        "hi",
        "gh"
      ],
      [
        "k",
        "s"
      ],
      [
        "Wh",
        "en"
      ],
      [
        "qu",
        "i"
      ],
      [
        "v",
        "is"
      ],
      [
        "again",
        "st"
      ],
      [
        "fa",
        "ther"
      ],
      [
        "v",
        "al"
      ],
      [
        "can",
        "not"
      ],
      [
        "d",
        "one"
      ],
      [
        "b",
        "it"
      ],
      [
        "s",
        "at"
      ],
      [
        "i",
        "er"
      ],
      [
        "l",
        "ow"
      ],
      [
        "po",
        "se"
      ],
      [
        "c",
        "ur"
      ],
      [
        "i",
        "al"
      ],
      [
        "us",
        "ed"
      ],
      [
        "m",
        "a"
      ],
      [
        "T",
        "H"
      ],
      [
        "p",
        "a"
      ],
      [
        "bet",
        "ter"
      ],
      [
        "g",
        "ed"
      ],
      [
        "we",
        "en"
      ],
      [
        "ch",
        "ar"
      ],
      [
        "fo",
        "llow"
      ],
      [
        "le",
        "ft"
      ],
      [
        "e",
        "ach"
      ],
      [
        "Th",
        "en"
      ],
      [
        "ans",
        "w"
      ],
      [
        "go",
        "ing"
      ],
      [
        "wh",
        "om"
      ],
      [
        "c",
        "he"
      ],
      [
        "ne",
        "ar"
      ],
      [
        "T",
        "o"
      ],
      [
        "su",
        "p"
      ],
      [
        "f",
        "f"
      ],
      [
        "se",
        "en"
      ],
      [
        "on",
        "s"
      ],
      [
        "o",
        "s"
      ],
      [
        "u",
        "res"
      ],
      [
        "p",
        "ur"
      ],
      [
        "qu",
        "ite"
      ],
      [
        "n",
        "ame"
      ],
      [
        "re",
        "st"
      ],
      [
        "l",
        "s"
      ],
      [
        "bet",
        "ween"
      ],
      [
        "S",
        "o"
      ],
      [
        "call",
        "ed"
      ],
      [
        "read",
        "y"
      ],
      [
        "h",
        "al"
      ],
      [
        "coun",
        "t"
      ],
      [
        "at",
        "ch"
      ],
      [
        "ha",
        "ving"
      ],
      [
        ",",
        "’"
      ],
      [
        "wom",
        "an"
      ],
      [
        "w",
        "ind"
      ],
      [
        "my",
        "self"
      ],
      [
        "th",
        "y"
      ],
      [
        "so",
        "on"
      ],
      [
[...]
